<unk>	0
<s>	0
</s>	0
▁1	-0
▁0	-1
..	-2
영화	-3
▁영화	-4
▁이	-5
▁9	-6
▁아	-7
▁8	-8
...	-9
▁그	-10
▁보	-11
▁재	-12
▁7	-13
▁10	-14
▁6	-15
ᄏᄏ	-16
▁5	-17
니다	-18
▁정	-19
▁나	-20
는데	-21
너무	-22
▁다	-23
▁3	-24
▁하	-25
▁좋	-26
▁2	-27
▁4	-28
▁없	-29
▁어	-30
▁너무	-31
▁사	-32
▁내	-33
▁감	-34
▁진	-35
▁재미	-36
▁연	-37
▁있	-38
▁지	-39
!!	-40
으로	-41
지만	-42
하고	-43
▁최	-44
▁시	-45
▁한	-46
네요	-47
▁안	-48
▁정말	-49
▁스	-50
▁만	-51
▁가	-52
10	-53
....	-54
에서	-55
▁재밌	-56
13	-57
12	-58
14	-59
17	-60
▁기	-61
15	-62
18	-63
90	-64
▁봤	-65
65	-66
▁평	-67
93	-68
98	-69
▁대	-70
97	-71
64	-72
67	-73
▁전	-74
92	-75
68	-76
95	-77
63	-78
62	-79
94	-80
60	-81
▁진짜	-82
▁연기	-83
▁마	-84
하는	-85
▁무	-86
▁모	-87
▁수	-88
▁여	-89
▁생	-90
▁잘	-91
어요	-92
27	-93
20	-94
▁주	-95
23	-96
25	-97
▁최고	-98
▁않	-99
24	-100
83	-101
84	-102
▁더	-103
87	-104
80	-105
85	-106
▁평점	-107
드라	-108
토리	-109
▁오	-110
습니다	-111
이다	-112
▁제	-113
▁개	-114
▁이런	-115
하다	-116
▁인	-117
▁말	-118
▁배	-119
드라마	-120
▁생각	-121
07	-122
05	-123
▁ᄏᄏ	-124
▁왜	-125
▁자	-126
들이	-127
▁같	-128
03	-129
47	-130
▁못	-131
▁스토리	-132
▁소	-133
43	-134
▁남	-135
▁알	-136
▁본	-137
까지	-138
▁느	-139
▁유	-140
45	-141
▁미	-142
▁보고	-143
▁볼	-144
▁감동	-145
하게	-146
▁일	-147
▁별	-148
이라	-149
▁쓰	-150
▁것	-151
▁비	-152
▁장	-153
보다	-154
었다	-155
57	-156
▁지루	-157
▁우	-158
▁드라마	-159
""	-160
▁많	-161
▁작	-162
▁중	-163
53	-164
▁재미있	-165
레기	-166
▁97	-167
▁그냥	-168
▁부	-169
~~	-170
▁배우	-171
▁뭐	-172
▁아니	-173
▁공	-174
04	-175
▁사람	-176
해서	-177
면서	-178
▁조	-179
▁내용	-180
▁역	-181
▁완	-182
ᅲᅲ	-183
▁만들	-184
▁감독	-185
82	-186
19	-187
▁끝	-188
16	-189
▁저	-190
▁애	-191
73	-192
▁좀	-193
적인	-194
▁재미없	-195
다는	-196
렇게	-197
00	-198
▁93	-199
리고	-200
▁고	-201
▁쓰레기	-202
▁해	-203
▁명	-204
▁사랑	-205
▁참	-206
▁되	-207
▁반	-208
69	-209
▁보는	-210
54	-211
;;	-212
▁영화를	-213
22	-214
▁웃	-215
▁영	-216
▁예	-217
^^	-218
▁100	-219
보고	-220
▁결	-221
▁봐	-222
▁다시	-223
지막	-224
액션	-225
▁좋은	-226
▁좋아	-227
▁시간	-228
??	-229
라고	-230
▁거	-231
▁매	-232
▁싶	-233
▁상	-234
▁신	-235
으면	-236
▁눈	-237
입니다	-238
▁처	-239
11	-240
▁실	-241
▁바	-242
▁87	-243
88	-244
▁이거	-245
44	-246
들의	-247
▁노	-248
▁영화가	-249
▁불	-250
37	-251
▁작품	-252
▁영화는	-253
55	-254
지는	-255
▁원	-256
96	-257
▁봤는데	-258
▁없는	-259
▁살	-260
하지	-261
▁이건	-262
인공	-263
▁최고의	-264
▁마지막	-265
!!!	-266
▁난	-267
▁내가	-268
▁기대	-269
▁완전	-270
ᄏᄏᄏᄏ	-271
▁액션	-272
▁좋았	-273
다가	-274
▁있는	-275
40	-276
50	-277
▁하나	-278
▁넘	-279
▁할	-280
▁의	-281
다고	-282
▁코	-283
ᄒᄒ	-284
▁성	-285
99	-286
28	-287
야기	-288
66	-289
▁도	-290
▁처음	-291
어서	-292
▁때	-293
▁죽	-294
▁몰	-295
▁한국	-296
없는	-297
적이	-298
세요	-299
33	-300
▁추	-301
▁지금	-302
▁없다	-303
같은	-304
▁후	-305
했다	-306
인데	-307
▁나오	-308
▁현	-309
들은	-310
▁괜	-311
▁하는	-312
▁최악	-313
▁김	-314
▁이렇게	-315
▁이게	-316
,,	-317
에게	-318
▁모르	-319
▁또	-320
▁아깝	-321
▁극	-322
61	-323
대로	-324
합니다	-325
라는	-326
▁별로	-327
적으로	-328
▁세	-329
이나	-330
▁허	-331
ᅳᅳ	-332
91	-333
▁멋	-334
▁이해	-335
부터	-336
▁강	-337
겠다	-338
▁관	-339
▁위	-340
▁초	-341
연기	-342
▁연출	-343
▁분	-344
있는	-345
▁돈	-346
▁94	-347
▁느낌	-348
▁짜	-349
▁명작	-350
한다	-351
▁두	-352
▁동	-353
▁80	-354
▁역시	-355
▁화	-356
▁심	-357
▁로	-358
70	-359
▁따	-360
▁잼	-361
▁구	-362
▁이야기	-363
35	-364
▁했	-365
▁기억	-366
▁뭔	-367
▁음	-368
▁평점이	-369
▁재밌게	-370
되는	-371
▁우리	-372
30	-373
▁캐	-374
OO	-375
34	-376
▁많이	-377
74	-378
▁괜찮	-379
▁당	-380
정도	-381
▁아이	-382
75	-383
▁85	-384
배우	-385
▁들	-386
▁95	-387
▁이영화	-388
▁장면	-389
21	-390
▁그래	-391
주는	-392
지도	-393
▁여자	-394
▁그리고	-395
▁잔	-396
▁에	-397
▁아름	-398
문에	-399
▁만든	-400
26	-401
▁엄	-402
▁요	-403
▁발	-404
▁98	-405
▁그런	-406
▁아까	-407
▁막	-408
▁와	-409
리는	-410
ᄏᄏᄏ	-411
29	-412
▁꼭	-413
재미	-414
▁주인공	-415
89	-416
▁포	-417
사람	-418
▁보여	-419
86	-420
았다	-421
▁차	-422
▁마음	-423
▁귀	-424
▁20	-425
▁77	-426
▁특	-427
▁단	-428
▁같은	-429
필요	-430
▁슬	-431
만에	-432
▁아닌	-433
드는	-434
▁설	-435
것도	-436
▁공포	-437
▁유치	-438
▁울	-439
▁졸	-440
▁존	-441
진짜	-442
77	-443
▁일본	-444
▁줄	-445
▁표	-446
을까	-447
▁박	-448
!!!!	-449
아서	-450
▁무슨	-451
하나	-452
81	-453
▁망	-454
가는	-455
없이	-456
▁없고	-457
▁아무	-458
었는데	-459
▁점	-460
▁ᄏᄏᄏ	-461
▁볼만	-462
▁현실	-463
▁결말	-464
▁서	-465
▁힘	-466
▁소재	-467
▁가장	-468
하기	-469
▁ᅲᅲ	-470
▁몰입	-471
였다	-472
▁아깝다	-473
▁다른	-474
▁누	-475
인가	-476
시간	-477
없다	-478
▁이상	-479
▁흥	-480
▁보면	-481
""""	-482
▁짱	-483
▁83	-484
▁보기	-485
▁과	-486
▁90	-487
▁.	-488
▁92	-489
나는	-490
▁..	-491
▁OO	-492
니까	-493
▁매력	-494
▁반전	-495
▁속	-496
하면	-497
▁빠	-498
보는	-499
▁남자	-500
▁뻔	-501
▁절	-502
"""	-503
구나	-504
▁걸	-505
▁얼	-506
▁가슴	-507
▁스릴	-508
▁짜증	-509
인지	-510
▁말이	-511
▁74	-512
▁애니	-513
▁리	-514
▁낮	-515
▁원작	-516
▁선	-517
▁영화다	-518
미디	-519
▁솔	-520
▁75	-521
하지만	-522
▁눈물	-523
스럽	-524
▁맞	-525
이고	-526
▁ᄒᄒ	-527
▁억	-528
봐도	-529
▁정도	-530
▁높	-531
▁대한	-532
▁방	-533
는지	-534
▁드	-535
는다	-536
▁긴	-537
▁충	-538
▁계	-539
▁인생	-540
▁ᄏ	-541
▁70	-542
▁있다	-543
려고	-544
릭터	-545
재밌	-546
▁99	-547
▁만들어	-548
▁전개	-549
▁영상	-550
었던	-551
▁인간	-552
▁88	-553
▁음악	-554
아요	-555
스러	-556
지않	-557
▁몇	-558
더라	-559
▁솔직	-560
지마	-561
▁많은	-562
▁집	-563
지고	-564
에는	-565
▁ᄏᄏᄏᄏ	-566
▁머	-567
리즈	-568
▁'	-569
▁필요	-570
48	-571
▁극장	-572
ᅮᅮ	-573
▁순	-574
32	-575
▁건	-576
▁굿	-577
▁모든	-578
▁아름다	-579
나서	-580
42	-581
▁한번	-582
▁돌	-583
처럼	-584
▁적	-585
▁간	-586
▁듯	-587
38	-588
▁게	-589
▁아직	-590
정말	-591
▁억지	-592
▁피	-593
02	-594
메이	-595
▁끝까지	-596
▁57	-597
▁새	-598
▁ᅳᅳ	-599
점이	-600
밖에	-601
▁문	-602
52	-603
▁하고	-604
다니	-605
근데	-606
▁수준	-607
▁욕	-608
▁찾	-609
었음	-610
나오	-611
▁하지만	-612
▁올	-613
▁편	-614
떨어	-615
58	-616
▁67	-617
▁봐도	-618
들을	-619
▁솔직히	-620
▁전혀	-621
▁받	-622
▁파	-623
중에	-624
▁재밋	-625
▁언	-626
스터	-627
▁행	-628
▁이제	-629
▁프	-630
▁모두	-631
▁...	-632
▁뭔가	-633
된다	-634
▁열	-635
▁외	-636
▁73	-637
떻게	-638
했던	-639
는거	-640
▁아주	-641
▁찍	-642
▁84	-643
▁추천	-644
08	-645
▁여운	-646
▁딱	-647
▁경	-648
나라	-649
▁캐릭터	-650
▁좋다	-651
▁연기력	-652
▁엄청	-653
▁코미디	-654
이는	-655
리가	-656
타임	-657
▁같다	-658
▁실망	-659
▁공감	-660
.....	-661
준다	-662
▁대박	-663
기도	-664
장면	-665
▁치	-666
▁102	-667
▁긴장	-668
78	-669
▁호	-670
72	-671
주고	-672
▁갈	-673
▁독	-674
스트	-675
▁봤다	-676
........	-677
▁달	-678
감독	-679
을때	-680
▁약	-681
▁버	-682
▁출	-683
▁최악의	-684
56	-685
▁놀	-686
▁나온	-687
이랑	-688
▁배우들	-689
▁먹	-690
▁크	-691
건지	-692
▁개봉	-693
주인공	-694
▁대단	-695
생각	-696
에도	-697
이지	-698
01	-699
▁가족	-700
▁답	-701
▁믿	-702
친구	-703
41	-704
▁손	-705
▁영화의	-706
06	-707
▁재미있게	-708
라도	-709
▁이걸	-710
▁어떻게	-711
▁교	-712
만들	-713
46	-714
▁엉	-715
때문에	-716
▁내내	-717
수록	-718
▁재밌다	-719
▁계속	-720
▁흥미	-721
했는데	-722
▁함	-723
없고	-724
영화는	-725
09	-726
이가	-727
점도	-728
▁레	-729
▁표현	-730
49	-731
하네요	-732
▁않고	-733
59	-734
던데	-735
▁잔잔	-736
▁영화에	-737
수가	-738
79	-739
이라는	-740
▁등	-741
▁어디	-742
스토리	-743
엔딩	-744
었어요	-745
▁악	-746
▁질	-747
▁야	-748
▁즐	-749
▁아니라	-750
있다	-751
최고	-752
▁대사	-753
기는	-754
어야	-755
▁모습	-756
▁제목	-757
▁96	-758
▁아쉽	-759
36	-760
▁30	-761
봤는데	-762
내내	-763
51	-764
▁물	-765
31	-766
아니	-767
▁그래도	-768
▁싸	-769
▁내용이	-770
▁떨어	-771
39	-772
▁삶	-773
▁않은	-774
▁101	-775
▁나오는	-776
내용	-777
하네	-778
▁-	-779
▁담	-780
보면	-781
▁카	-782
▁아쉬	-783
기에	-784
전에	-785
▁연기가	-786
한테	-787
라리	-788
▁잊	-789
▁아니다	-790
▁조금	-791
▁그렇	-792
성이	-793
▁기분	-794
▁스릴러	-795
영화가	-796
▁잠	-797
▁베	-798
▁느껴	-799
▁봐야	-800
▁진심	-801
▁막장	-802
리오	-803
어도	-804
▁보다	-805
▁긴장감	-806
해요	-807
~~~	-808
▁자체	-809
만큼	-810
리스	-811
▁제대로	-812
76	-813
하면서	-814
▁시리즈	-815
들도	-816
이라고	-817
▁아름다운	-818
▁개인	-819
▁1027	-820
▁메	-821
▁요즘	-822
▁제일	-823
▁재미없다	-824
▁떠	-825
▁오랜	-826
대체	-827
▁앞	-828
▁근데	-829
▁연기도	-830
▁네	-831
으나	-832
71	-833
같다	-834
▁알바	-835
▁만드는	-836
▁부족	-837
인듯	-838
▁나는	-839
▁중간	-840
▁천	-841
▁홍	-842
훌륭	-843
▁웃기	-844
이상	-845
▁재미도	-846
▁44	-847
▁60	-848
▁내용도	-849
▁아까운	-850
▁정신	-851
▁제작	-852
▁스토리가	-853
이란	-854
▁보다가	-855
▁63	-856
▁잼있	-857
기가	-858
▁노래	-859
▁않는	-860
치는	-861
▁나름	-862
▁미국	-863
▁이유	-864
년대	-865
▁어설	-866
만한	-867
▁날	-868
▁데	-869
▁나왔	-870
▁목	-871
▁55	-872
▁시작	-873
난다	-874
점은	-875
▁형	-876
▁아니고	-877
▁국	-878
▁삼	-879
▁감독이	-880
▁디	-881
▁33	-882
▁타	-883
▁53	-884
▁보고싶	-885
거리	-886
▁때문에	-887
▁왜이	-888
▁81	-889
진다	-890
▁싶다	-891
▁각	-892
할수	-893
▁킬	-894
마다	-895
해도	-896
▁54	-897
▁나와	-898
▁영화라고	-899
라이	-900
▁그러	-901
군요	-902
▁로맨	-903
▁절대	-904
ᄏᄏᄏᄏᄏᄏᄏᄏ	-905
▁모르겠	-906
▁남는	-907
▁보게	-908
▁훌륭	-909
▁시간이	-910
▁너무나	-911
▁복	-912
▁될	-913
▁뒤	-914
▁통	-915
영화를	-916
스팅	-917
▁된	-918
▁86	-919
▁따뜻	-920
▁싶은	-921
▁감정	-922
▁의미	-923
▁살아	-924
▁영화로	-925
▁케	-926
이네	-927
적이고	-928
감동	-929
에요	-930
▁수작	-931
▁출연	-932
▁아직도	-933
나고	-934
▁느끼	-935
▁글	-936
▁뻔한	-937
▁티	-938
▁세상	-939
▁작가	-940
았는데	-941
▁여운이	-942
▁72	-943
기를	-944
나리오	-945
로운	-946
▁괜찮은	-947
나요	-948
더니	-949
▁차라리	-950
으로도	-951
▁영화입니다	-952
스러운	-953
하는데	-954
▁스토리도	-955
▁^^	-956
▁그저	-957
▁나도	-958
▁신선	-959
▁희	-960
▁어이	-961
▁뭘	-962
▁재밌어요	-963
학교	-964
▁안되	-965
▁주는	-966
었습니다	-967
▁무엇	-968
▁얼마	-969
▁특히	-970
▁보면서	-971
소리	-972
▁장난	-973
▁ᅲ	-974
▁걍	-975
이런	-976
▁C	-977
이야	-978
▁도대체	-979
해야	-980
▁45	-981
▁만화	-982
▁변	-983
▁산	-984
없음	-985
▁점수	-986
▁싫	-987
▁감독의	-988
고싶	-989
▁무섭	-990
▁친구	-991
▁행복	-992
▁사실	-993
▁어린	-994
▁B	-995
▁무서	-996
▁니	-997
▁판	-998
▁황	-999
▁확	-1000
▁영화였	-1001
이네요	-1002
▁""""	-1003
▁되는	-1004
▁t	-1005
▁갑	-1006
▁언제	-1007
메이션	-1008
▁오랜만에	-1009
▁훨	-1010
점을	-1011
▁답답	-1012
▁시청	-1013
▁좋았다	-1014
▁용	-1015
???	-1016
▁멋진	-1017
사랑	-1018
지가	-1019
▁이해가	-1020
▁옛	-1021
▁첨	-1022
이지만	-1023
▁64	-1024
▁없음	-1025
▁부분	-1026
▁허접	-1027
_-	-1028
▁998	-1029
▁마지막에	-1030
▁15	-1031
▁재미가	-1032
▁길	-1033
▁토	-1034
▁좋아하는	-1035
▁빨	-1036
▁빼	-1037
나게	-1038
;;;	-1039
▁좋고	-1040
▁자신	-1041
▁초반	-1042
▁관객	-1043
▁봤습니다	-1044
▁추억	-1045
▁68	-1046
▁우리나라	-1047
▁깨	-1048
놓고	-1049
▁귀여	-1050
▁전쟁	-1051
부분	-1052
▁58	-1053
▁봤던	-1054
▁인상	-1055
것이	-1056
▁양	-1057
▁소름	-1058
▁완벽	-1059
▁깊	-1060
성도	-1061
한데	-1062
▁엔딩	-1063
▁생각이	-1064
▁배경	-1065
▁어색	-1066
▁없이	-1067
▁시나리오	-1068
아깝	-1069
▁OOO	-1070
▁지루하고	-1071
▁어떤	-1072
▁궁	-1073
▁킬링	-1074
▁지루함	-1075
▁청	-1076
▁낚	-1077
▁유쾌	-1078
▁힘들	-1079
디오	-1080
치고	-1081
▁못한	-1082
▁영화관	-1083
인이	-1084
▁분위	-1085
동안	-1086
▁헐	-1087
▁다큐	-1088
▁985	-1089
ᄃᄃ	-1090
▁43	-1091
▁흐	-1092
▁총	-1093
▁안타	-1094
▁식	-1095
▁준	-1096
▁팬	-1097
▁984	-1098
ᄍᄍ	-1099
▁둘	-1100
▁오늘	-1101
▁983	-1102
▁최고다	-1103
▁입	-1104
다면	-1105
▁스타	-1106
▁배우들의	-1107
▁문제	-1108
▁시대	-1109
▁이딴	-1110
▁지루한	-1111
▁잡	-1112
▁슬프	-1113
▁들어	-1114
▁함께	-1115
▁환	-1116
구만	-1117
,,,	-1118
▁13	-1119
아까	-1120
▁졸작	-1121
▁찾아	-1122
▁결국	-1123
텐데	-1124
▁만들었	-1125
▁종	-1126
한거	-1127
▁있었	-1128
▁큰	-1129
▁개인적으로	-1130
▁뛰	-1131
▁범	-1132
▁왠	-1133
럽게	-1134
▁89	-1135
들에게	-1136
리지	-1137
▁진정	-1138
▁뿐	-1139
▁25	-1140
▁보는내내	-1141
▁태	-1142
▁임	-1143
시길	-1144
▁당시	-1145
▁어릴	-1146
▁역사	-1147
▁1025	-1148
을듯	-1149
▁애니메이션	-1150
▁러	-1151
그냥	-1152
점대	-1153
쓰레기	-1154
▁진부	-1155
▁보세요	-1156
▁재밌는	-1157
낭비	-1158
보니	-1159
▁예술	-1160
▁얼마나	-1161
건가	-1162
구요	-1163
좋아	-1164
▁코믹	-1165
▁책	-1166
그래	-1167
보단	-1168
▁꿈	-1169
▁포스터	-1170
▁클	-1171
▁50	-1172
▁62	-1173
▁몰입도	-1174
▁아름답	-1175
~!	-1176
나마	-1177
▁아무리	-1178
▁암	-1179
▁설정	-1180
▁캐스팅	-1181
▁혼	-1182
▁강추	-1183
▁82	-1184
▁"""	-1185
▁백	-1186
지루	-1187
평점	-1188
▁킬링타임	-1189
레이	-1190
▁기억에	-1191
▁사람이	-1192
▁1007	-1193
▁ᄒ	-1194
▁맘	-1195
▁연기는	-1196
▁1024	-1197
▁웃음	-1198
▁안되는	-1199
▁지루하다	-1200
▁주연	-1201
▁후회	-1202
▁78	-1203
▁개연	-1204
▁오래	-1205
▁영화도	-1206
▁영화라	-1207
▁민	-1208
▁돌아	-1209
▁47	-1210
하며	-1211
있고	-1212
▁패	-1213
려는	-1214
작품	-1215
▁보지	-1216
▁공포영화	-1217
st	-1218
▁1010	-1219
▁얘	-1220
했음	-1221
▁1012	-1222
주의	-1223
▁꽤	-1224
▁브	-1225
▁40	-1226
▁65	-1227
▁매우	-1228
▁제발	-1229
oo	-1230
▁몸	-1231
같이	-1232
자기	-1233
▁14	-1234
▁더빙	-1235
▁지나	-1236
▁충격	-1237
▁주제	-1238
▁그렇게	-1239
~~~~	-1240
들과	-1241
당히	-1242
이버	-1243
▁여러	-1244
▁집중	-1245
한영화	-1246
▁990	-1247
▁폭	-1248
는게	-1249
▁어느	-1250
▁잔인	-1251
▁낫	-1252
▁엄마	-1253
▁보지마	-1254
인줄	-1255
▁35	-1256
말이	-1257
▁충분	-1258
▁같이	-1259
▁궁금	-1260
▁않았	-1261
▁있고	-1262
▁한국영화	-1263
렸다	-1264
▁좋아요	-1265
▁옛날	-1266
▁하나도	-1267
▁병	-1268
▁37	-1269
▁채	-1270
▁미친	-1271
학생	-1272
▁17	-1273
▁27	-1274
▁79	-1275
▁것이	-1276
▁빠져	-1277
▁따라	-1278
▁순수	-1279
▁980	-1280
▁T	-1281
▁군	-1282
마디	-1283
▁먼	-1284
르는	-1285
웠다	-1286
▁봤어요	-1287
▁터	-1288
▁감동적이	-1289
▁은	-1290
이거	-1291
▁불쌍	-1292
▁1015	-1293
▁극장에서	-1294
▁모르겠다	-1295
......	-1296
▁블	-1297
▁느낌이	-1298
▁풀	-1299
▁38	-1300
▁뛰어	-1301
▁997	-1302
▁커	-1303
가지	-1304
것같	-1305
▁한다	-1306
꿀잼	-1307
만든	-1308
▁위해	-1309
▁광	-1310
▁탄	-1311
길래	-1312
▁나올	-1313
▁하지	-1314
▁숨	-1315
▁48	-1316
▁괴	-1317
야지	-1318
▁말도	-1319
▁색	-1320
▁ᅮᅮ	-1321
▁1013	-1322
▁영화네요	-1323
▁너	-1324
▁투	-1325
▁흘	-1326
거지	-1327
함을	-1328
▁재밌음	-1329
▁o	-1330
린다	-1331
수있	-1332
▁중국	-1333
▁마음이	-1334
▁b	-1335
해지는	-1336
자가	-1337
▁19	-1338
▁그만	-1339
▁굳	-1340
▁상상	-1341
▁,	-1342
▁24	-1343
▁52	-1344
▁알고	-1345
▁위한	-1346
▁1005	-1347
기만	-1348
▁12	-1349
▁91	-1350
▁영화중	-1351
▁약간	-1352
▁엉성	-1353
이라도	-1354
▁않는다	-1355
▁끌	-1356
성을	-1357
▁돋	-1358
봤다	-1359
▁924	-1360
▁왕	-1361
력이	-1362
워서	-1363
좋은	-1364
하시	-1365
▁34	-1366
▁감사	-1367
▁이름	-1368
▁!	-1369
전개	-1370
100	-1371
▁프로	-1372
▁여기	-1373
이야기	-1374
▁내용은	-1375
▁걸작	-1376
▁누가	-1377
▁대체	-1378
▁이쁘	-1379
▁읽	-1380
▁비슷	-1381
▁얼굴	-1382
했지만	-1383
▁후반	-1384
▁987	-1385
▁로맨스	-1386
그리고	-1387
▁923	-1388
▁똥	-1389
▁23	-1390
▁훨씬	-1391
▁영상미	-1392
▁이정도	-1393
느낌	-1394
▁철	-1395
이었다	-1396
▁가슴이	-1397
▁눈물이	-1398
으니	-1399
▁갈수록	-1400
▁감동도	-1401
▁사람들	-1402
▁CG	-1403
▁있을	-1404
▁존나	-1405
▁여주인공	-1406
▁첫	-1407
굉장	-1408
듯한	-1409
▁실화	-1410
▁그나마	-1411
것을	-1412
노잼	-1413
리를	-1414
자체	-1415
겠지만	-1416
가서	-1417
▁히	-1418
재밋	-1419
▁비교	-1420
이건	-1421
▁없었다	-1422
▁똑	-1423
▁번	-1424
▁61	-1425
▁죄	-1426
▁흔	-1427
인생	-1428
함이	-1429
▁1018	-1430
▁연기를	-1431
▁재미없음	-1432
▁g	-1433
▁키	-1434
대한	-1435
라서	-1436
▁전체	-1437
▁947	-1438
▁968	-1439
▁발연기	-1440
년이	-1441
버린	-1442
타지	-1443
편이	-1444
▁노잼	-1445
겠지	-1446
▁알았	-1447
▁맛	-1448
♥♥	-1449
재미있	-1450
▁없어	-1451
라면	-1452
멜로	-1453
▁어렸	-1454
▁기억이	-1455
▁913	-1456
▁그래서	-1457
▁장르	-1458
▁재밌고	-1459
▁S	-1460
▁갖	-1461
▁벌	-1462
▁단순	-1463
▁밖에	-1464
스럽다	-1465
▁995	-1466
▁어설픈	-1467
▁늘	-1468
시절	-1469
▁것도	-1470
▁s	-1471
ood	-1472
▁굉장	-1473
▁티비	-1474
▁비디오	-1475
년도	-1476
수준	-1477
▁느낄	-1478
▁초딩	-1479
▁네이버	-1480
나온	-1481
지지	-1482
이라면	-1483
▁취	-1484
든다	-1485
시키	-1486
▁알게	-1487
▁보여주는	-1488
▁사람들이	-1489
보게	-1490
▁76	-1491
보기	-1492
▁867	-1493
▁딸	-1494
개도	-1495
정이	-1496
▁귀엽	-1497
▁다들	-1498
▁993	-1499
▁감동이	-1500
▁오글	-1501
▁다음	-1502
▁이미	-1503
아이	-1504
▁것을	-1505
▁시즌	-1506
▁인물	-1507
마지막	-1508
으면서	-1509
▁결말이	-1510
스가	-1511
▁....	-1512
한번	-1513
er	-1514
644	-1515
▁상황	-1516
▁주고	-1517
려서	-1518
말고	-1519
▁간만에	-1520
▁잘봤	-1521
▁쓰레기영화	-1522
▁영화관에서	-1523
▁성룡	-1524
▁이것	-1525
적이다	-1526
▁1023	-1527
▁송	-1528
그런	-1529
머니	-1530
▁섹	-1531
▁테	-1532
버지	-1533
123	-1534
▁한마디	-1535
▁꼬	-1536
인의	-1537
짜리	-1538
해라	-1539
▁등장	-1540
▁아쉽다	-1541
▁좋은데	-1542
었고	-1543
편은	-1544
▁교훈	-1545
144	-1546
▁존재	-1547
▁좋겠	-1548
▁화려	-1549
▁c	-1550
땜에	-1551
완전	-1552
647	-1553
▁이후	-1554
보고싶	-1555
영화의	-1556
▁킬링타임용	-1557
▁트	-1558
▁풍	-1559
거같	-1560
177	-1561
655	-1562
▁온	-1563
▁독특	-1564
▁862	-1565
▁영화였다	-1566
▁으	-1567
다른	-1568
론가	-1569
▁아님	-1570
▁생각을	-1571
▁감동적인	-1572
▁멍	-1573
▁훈	-1574
다시	-1575
▁맘에	-1576
▁884	-1577
▁바로	-1578
▁애들	-1579
▁평가	-1580
▁여배우	-1581
▁~	-1582
▁쓸	-1583
944	-1584
▁전부	-1585
▁스토리는	-1586
건데	-1587
되고	-1588
▁잘못	-1589
▁같아요	-1590
거야	-1591
연히	-1592
▁사회	-1593
▁있을까	-1594
▁1020	-1595
▁배우들이	-1596
▁라	-1597
감이	-1598
았던	-1599
607	-1600
▁943	-1601
▁957	-1602
▁잔잔한	-1603
▁했는데	-1604
▁66	-1605
▁마이	-1606
▁보니	-1607
▁삼류	-1608
▁않다	-1609
▁생각보다	-1610
이팅	-1611
933	-1612
▁69	-1613
▁대해	-1614
주세요	-1615
▁진정한	-1616
▁틀	-1617
▁혹	-1618
들어	-1619
워요	-1620
할때	-1621
▁다운	-1622
▁별점	-1623
▁영화임	-1624
아닌	-1625
잖아	-1626
633	-1627
아깝다	-1628
▁그리	-1629
▁어울	-1630
▁818	-1631
▁상당히	-1632
▁직	-1633
수를	-1634
▁감동을	-1635
▁그대로	-1636
모르	-1637
143	-1638
정도로	-1639
▁정도로	-1640
▁거의	-1641
▁재미는	-1642
175	-1643
▁소설	-1644
▁영화인데	-1645
133	-1646
603	-1647
나오는	-1648
▁같은데	-1649
스타	-1650
677	-1651
▁높은	-1652
▁다르	-1653
▁865	-1654
,.	-1655
▁?	-1656
▁ᅳ	-1657
▁항	-1658
본다	-1659
중간	-1660
▁허무	-1661
907	-1662
▁세계	-1663
였음	-1664
637	-1665
977	-1666
▁재미있는	-1667
▁빵	-1668
▁ᄍᄍ	-1669
▁두번	-1670
▁예상	-1671
▁965	-1672
▁중간에	-1673
여자	-1674
을텐데	-1675
▁나와서	-1676
▁뭐야	-1677
▁자연	-1678
▁준다	-1679
거나	-1680
173	-1681
▁해서	-1682
▁재미있어요	-1683
졌다	-1684
하냐	-1685
▁하다	-1686
에서도	-1687
리의	-1688
155	-1689
영화다	-1690
▁휴	-1691
신이	-1692
하자	-1693
▁뭐지	-1694
▁805	-1695
▁있지만	-1696
댓글	-1697
이게	-1698
145	-1699
▁몇번	-1700
보다는	-1701
▁925	-1702
간다	-1703
분들	-1704
900	-1705
▁재밌네요	-1706
▁윤	-1707
▁멋있	-1708
▁봐서	-1709
▁883	-1710
▁재미있다	-1711
▁구성	-1712
▁어른	-1713
▁겁	-1714
▁봣	-1715
기대	-1716
170	-1717
600	-1718
▁기다	-1719
▁나의	-1720
▁혼자	-1721
▁893	-1722
▁봤지만	-1723
▁이영화를	-1724
940	-1725
▁32	-1726
▁볼수	-1727
▁실제	-1728
▁자기	-1729
시대	-1730
923	-1731
947	-1732
▁820	-1733
▁927	-1734
어나	-1735
여서	-1736
▁잃	-1737
을수	-1738
▁에로	-1739
▁평점을	-1740
▁착	-1741
아야	-1742
어가	-1743
저히	-1744
▁이번	-1745
▁밑	-1746
라니	-1747
643	-1748
987	-1749
▁18	-1750
▁멜로	-1751
었지만	-1752
▁압	-1753
때마다	-1754
에서는	-1755
▁945	-1756
▁맨	-1757
140	-1758
▁각본	-1759
▁제가	-1760
▁했다	-1761
▁200	-1762
▁마음에	-1763
▁(	-1764
▁흑	-1765
▁슬픈	-1766
▁굉장히	-1767
음악	-1768
950	-1769
다는게	-1770
▁장면이	-1771
에선	-1772
135	-1773
▁낮은	-1774
▁좀비	-1775
▁O	-1776
▁묘	-1777
예요	-1778
▁더욱	-1779
▁갑자기	-1780
-_-	-1781
670	-1782
▁어쩌	-1783
▁질질	-1784
▁평범	-1785
▁어디서	-1786
▁있어서	-1787
사가	-1788
시다	-1789
924	-1790
랑스	-1791
이트	-1792
지를	-1793
▁42	-1794
▁머리	-1795
▁뭐냐	-1796
▁원작을	-1797
고는	-1798
903	-1799
955	-1800
▁방송	-1801
▁저런	-1802
▁즐거	-1803
▁962	-1804
▁권	-1805
▁까	-1806
▁빨리	-1807
▁여주	-1808
▁확실	-1809
보면서	-1810
▁극장판	-1811
▁새로운	-1812
▁판타지	-1813
▁59	-1814
▁누구	-1815
▁747	-1816
았음	-1817
174	-1818
178	-1819
▁예쁘	-1820
????	-1821
▁볼만한	-1822
던가	-1823
925	-1824
▁감독님	-1825
157	-1826
183	-1827
985	-1828
~!!	-1829
▁그녀	-1830
▁상영	-1831
▁못하는	-1832
▁재미없는	-1833
일이	-1834
640	-1835
683	-1836
▁의도	-1837
▁크리스	-1838
인다	-1839
147	-1840
685	-1841
▁개그	-1842
▁끝나	-1843
▁불편	-1844
ᄋᄋ	-1845
▁밀	-1846
▁벗	-1847
124	-1848
150	-1849
▁믿고	-1850
▁화면	-1851
▁슈	-1852
108	-1853
645	-1854
▁11	-1855
▁가치	-1856
▁봐라	-1857
▁있어	-1858
스럽고	-1859
▁듣	-1860
▁빛	-1861
▁회	-1862
▁흠	-1863
우드	-1864
▁뭐가	-1865
코미디	-1866
▁생각하게	-1867
에겐	-1868
102	-1869
905	-1870
▁자체가	-1871
▁근	-1872
유의	-1873
하니	-1874
927	-1875
▁저는	-1876
▁전형	-1877
▁시청률	-1878
▁너무너무	-1879
▁놓	-1880
▁쳐	-1881
와서	-1882
105	-1883
122	-1884
▁71	-1885
▁일단	-1886
▁항상	-1887
지게	-1888
103	-1889
604	-1890
▁봤음	-1891
▁887	-1892
▁꺼	-1893
▁빈	-1894
년전	-1895
도록	-1896
리티	-1897
904	-1898
974	-1899
▁성우	-1900
▁역대	-1901
▁흥행	-1902
▁훌륭한	-1903
▁M	-1904
605	-1905
630	-1906
▁탄탄	-1907
▁873	-1908
▁그러나	-1909
▁봄	-1910
▁왔	-1911
▁운	-1912
현실	-1913
153	-1914
622	-1915
945	-1916
▁꿀잼	-1917
▁만드	-1918
▁예고	-1919
▁가지고	-1920
▁있는데	-1921
▁ᄉ	-1922
진진	-1923
943	-1924
▁22	-1925
▁있었다	-1926
!!!!!!!!	-1927
그러	-1928
봐서	-1929
조건	-1930
120	-1931
634	-1932
930	-1933
▁감성	-1934
▁살인	-1935
▁빌	-1936
남자	-1937
속에	-1938
▁비해	-1939
▁아닐	-1940
▁중요	-1941
보다가	-1942
했어요	-1943
▁그런지	-1944
▁보여주	-1945
▁향	-1946
142	-1947
800	-1948
▁사람은	-1949
▁없어서	-1950
▁이런영화	-1951
▁써	-1952
들아	-1953
메디	-1954
973	-1955
▁관람	-1956
▁아까움	-1957
▁평론가	-1958
▁필	-1959
104	-1960
627	-1961
957	-1962
983	-1963
984	-1964
이라니	-1965
하지않	-1966
▁처음부터	-1967
in	-1968
154	-1969
187	-1970
653	-1971
▁TV	-1972
립니다	-1973
▁생각해	-1974
▁충분히	-1975
▁1003	-1976
▁주인공이	-1977
없어	-1978
978	-1979
▁순간	-1980
▁한심	-1981
ᅲᅲᅲᅲ	-1982
▁920	-1983
기고	-1984
125	-1985
127	-1986
134	-1987
673	-1988
833	-1989
920	-1990
935	-1991
▁돋보	-1992
하지도	-1993
내가	-1994
무리	-1995
130	-1996
188	-1997
988	-1998
▁것은	-1999
▁대단한	-2000
거다	-2001
623	-2002
624	-2003
675	-2004
970	-2005
▁진행	-2006
▁헐리	-2007
128	-2008
137	-2009
674	-2010
928	-2011
980	-2012
▁해도	-2013
▁개연성	-2014
▁됐	-2015
688	-2016
952	-2017
▁점점	-2018
▁쉽	-2019
별로	-2020
사회	-2021
934	-2022
▁리얼	-2023
▁안타깝	-2024
▁프랑스	-2025
▁합니다	-2026
657	-2027
953	-2028
▁댓글	-2029
으며	-2030
조차	-2031
▁만족	-2032
▁잘만들	-2033
▁금	-2034
이코	-2035
152	-2036
650	-2037
932	-2038
▁소리	-2039
▁어려	-2040
▁좋네요	-2041
▁짝	-2042
되어	-2043
107	-2044
638	-2045
▁28	-2046
▁tv	-2047
▁나이	-2048
▁시절	-2049
▁식상	-2050
▁한편	-2051
▁젊	-2052
▁몰랐	-2053
▁참고	-2054
▁훈훈	-2055
영화중	-2056
▁헤	-2057
웃음	-2058
975	-2059
▁당신	-2060
▁자극	-2061
만으로도	-2062
▁good	-2063
▁능	-2064
가고	-2065
처음	-2066
했고	-2067
히려	-2068
182	-2069
687	-2070
▁21	-2071
▁수가	-2072
▁분위기	-2073
▁m	-2074
짜증	-2075
148	-2076
937	-2077
942	-2078
▁먹먹	-2079
▁보았	-2080
▁소중	-2081
▁참신	-2082
▁홍콩	-2083
▁933	-2084
▁재밌는데	-2085
▁루	-2086
▁승	-2087
만의	-2088
스의	-2089
아도	-2090
▁황당	-2091
▁아닌가	-2092
▁좋은영화	-2093
▁맥	-2094
▁섬	-2095
저씨	-2096
873	-2097
▁그닥	-2098
시리즈	-2099
▁964	-2100
▁이영화는	-2101
▁창	-2102
한게	-2103
184	-2104
▁어쩔	-2105
▁하게	-2106
것같다	-2107
▁847	-2108
▁짧	-2109
러운	-2110
봐야	-2111
일까	-2112
185	-2113
▁그때	-2114
▁된다	-2115
▁선택	-2116
▁엉망	-2117
▁보는데	-2118
▁전개가	-2119
▁흥미진진	-2120
▁급	-2121
▁씨	-2122
촬영	-2123
602	-2124
635	-2125
682	-2126
▁유명	-2127
▁864	-2128
▁한마디로	-2129
리게	-2130
하긴	-2131
효과	-2132
▁불륜	-2133
;;;;	-2134
▁도저히	-2135
▁안타까	-2136
▁평점은	-2137
했습니다	-2138
▁묻	-2139
954	-2140
▁56	-2141
▁망작	-2142
▁여전	-2143
▁944	-2144
▁무조건	-2145
▁재밌었다	-2146
▁검	-2147
▁깔	-2148
▁놈	-2149
▁찌	-2150
최악	-2151
672	-2152
▁가는	-2153
▁카메	-2154
▁케이	-2155
어지는	-2156
었으면	-2157
▁더럽게	-2158
▁어릴때	-2159
▁엄청난	-2160
많은	-2161
민국	-2162
822	-2163
▁편집	-2164
▁감독은	-2165
▁다시봐도	-2166
파이	-2167
179	-2168
620	-2169
625	-2170
▁과거	-2171
▁끝내	-2172
▁743	-2173
▁아쉬운	-2174
▁쓴	-2175
추천	-2176
632	-2177
654	-2178
902	-2179
929	-2180
▁얘기	-2181
▁855	-2182
▁지금까지	-2183
인물	-2184
지금	-2185
277	-2186
684	-2187
855	-2188
▁없네	-2189
지마라	-2190
▁-_-	-2191
▁사랑을	-2192
▁뮤	-2193
172	-2194
949	-2195
▁그게	-2196
▁807	-2197
▁모르고	-2198
▁이것도	-2199
이냐	-2200
656	-2201
▁멍청	-2202
▁범죄	-2203
▁안나	-2204
▁진지	-2205
▁겨	-2206
▁원래	-2207
하는거	-2208
▁돈주고	-2209
▁사람들은	-2210
겠네	-2211
만이	-2212
없네	-2213
129	-2214
180	-2215
▁미안	-2216
▁이리	-2217
▁953	-2218
영상	-2219
이면	-2220
922	-2221
보는데	-2222
▁봤네요	-2223
▁페	-2224
연출	-2225
636	-2226
▁물론	-2227
▁있음	-2228
▁희망	-2229
하다고	-2230
▁좋겠다	-2231
▁줄거리	-2232
그램	-2233
막장	-2234
애니	-2235
680	-2236
▁영화인	-2237
당시	-2238
대박	-2239
하여	-2240
608	-2241
▁만점	-2242
▁초등	-2243
▁해야	-2244
영화로	-2245
▁1014	-2246
▁견	-2247
938	-2248
▁설명	-2249
▁자꾸	-2250
▁힘든	-2251
▁853	-2252
났다	-2253
어로	-2254
678	-2255
▁결혼	-2256
▁최근	-2257
▁평점에	-2258
▁후반부	-2259
▁뜬	-2260
방송	-2261
▁가능	-2262
▁전설	-2263
▁죽음	-2264
▁로맨틱	-2265
▁a	-2266
▁넣	-2267
▁북	-2268
169	-2269
▁미화	-2270
▁아빠	-2271
▁그래픽	-2272
▁유치한	-2273
▁있다는	-2274
였습니다	-2275
▁갔	-2276
스런	-2277
689	-2278
908	-2279
948	-2280
▁감상	-2281
▁분명	-2282
▁알려	-2283
▁저질	-2284
▁따뜻한	-2285
▁액션도	-2286
▁전형적인	-2287
시는	-2288
▁느꼈	-2289
▁사라	-2290
보세요	-2291
.......	-2292
▁d	-2293
▁법	-2294
내는	-2295
님의	-2296
158	-2297
▁가볍	-2298
▁괜히	-2299
▁내인생	-2300
시고	-2301
652	-2302
▁그럴	-2303
▁그림	-2304
▁배우가	-2305
▁없네요	-2306
따위	-2307
203	-2308
▁병맛	-2309
▁웃긴	-2310
▁느끼게	-2311
▁억지로	-2312
▁오히려	-2313
내고	-2314
121	-2315
126	-2316
200	-2317
982	-2318
▁아버지	-2319
▁예전에	-2320
▁골	-2321
작가	-2322
958	-2323
981	-2324
▁독립	-2325
▁영웅	-2326
▁좋음	-2327
메이크	-2328
▁857	-2329
▁무서운	-2330
▁오글거	-2331
▁완벽한	-2332
▁이야기를	-2333
▁끼	-2334
공포	-2335
대의	-2336
명작	-2337
봐라	-2338
지다	-2339
▁나쁘	-2340
▁바보	-2341
,,,,	-2342
▁인간의	-2343
▁1022	-2344
▁깜	-2345
년에	-2346
프로	-2347
171	-2348
▁49	-2349
▁듯한	-2350
▁학교	-2351
였는데	-2352
하는게	-2353
▁입니다	-2354
▁덕	-2355
나면	-2356
이하	-2357
자의	-2358
237	-2359
▁SF	-2360
그래도	-2361
▁연출력	-2362
것은	-2363
은데	-2364
131	-2365
▁51	-2366
▁돈이	-2367
▁동화	-2368
▁별루	-2369
▁죽는	-2370
▁하면	-2371
▁885	-2372
▁907	-2373
▁완성도	-2374
▁우연히	-2375
▁기대하고	-2376
ST	-2377
▁친	-2378
오는	-2379
움이	-2380
196	-2381
233	-2382
257	-2383
845	-2384
▁바라	-2385
▁흘러	-2386
▁스타일	-2387
▁지루해	-2388
▁좋았어요	-2389
님이	-2390
159	-2391
939	-2392
▁대작	-2393
▁말고	-2394
▁인정	-2395
▁현재	-2396
▁것이다	-2397
▁모르는	-2398
▁대한민국	-2399
▁팔	-2400
랄까	-2401
평가	-2402
한듯	-2403
함과	-2404
111	-2405
132	-2406
136	-2407
601	-2408
639	-2409
972	-2410
▁!!	-2411
▁26	-2412
▁나쁜	-2413
▁되어	-2414
▁요소	-2415
▁알았다	-2416
▁영화보다	-2417
▁재미없어	-2418
스를	-2419
실망	-2420
심이	-2421
161	-2422
628	-2423
▁복수	-2424
▁신기	-2425
▁적당	-2426
▁진실	-2427
▁안된다	-2428
▁아무것도	-2429
▁아이들이	-2430
예산	-2431
877	-2432
▁39	-2433
▁전기	-2434
▁지금도	-2435
웠던	-2436
인간	-2437
151	-2438
648	-2439
807	-2440
▁관계	-2441
▁풀어	-2442
▁허술	-2443
▁977	-2444
우는	-2445
077	-2446
181	-2447
646	-2448
686	-2449
843	-2450
976	-2451
▁29	-2452
▁다행	-2453
▁메세	-2454
▁서로	-2455
▁영원	-2456
▁잊혀	-2457
▁892	-2458
▁어설프	-2459
▁재밌어	-2460
▁처음으로	-2461
네여	-2462
심을	-2463
▁중반	-2464
리아	-2465
166	-2466
230	-2467
837	-2468
979	-2469
▁낫다	-2470
▁노력	-2471
▁이러	-2472
같은데	-2473
안되는	-2474
▁ost	-2475
▁이런걸	-2476
▁특유의	-2477
▁화이팅	-2478
▁재미있고	-2479
000	-2480
244	-2481
989	-2482
▁유머	-2483
▁전문	-2484
▁전편	-2485
................	-2486
▁핵	-2487
기엔	-2488
리다	-2489
199	-2490
906	-2491
936	-2492
▁바람	-2493
▁성장	-2494
▁안보	-2495
▁즐겁	-2496
▁천재	-2497
더군요	-2498
▁803	-2499
▁다운받	-2500
▁앞으로	-2501
▁코메디	-2502
▁만들었다	-2503
642	-2504
681	-2505
▁ᄃᄃ	-2506
최고의	-2507
▁967	-2508
▁알았는데	-2509
▁촌	-2510
드가	-2511
상을	-2512
234	-2513
235	-2514
691	-2515
▁없을	-2516
▁웃겨	-2517
▁연출이	-2518
▁이런거	-2519
▁멀	-2520
있게	-2521
101	-2522
106	-2523
941	-2524
▁놀라	-2525
▁라는	-2526
▁저도	-2527
▁전작	-2528
▁청춘	-2529
안하고	-2530
▁787	-2531
▁1017	-2532
.5	-2533
▁탈	-2534
강추	-2535
세가	-2536
어울	-2537
138	-2538
844	-2539
▁나라	-2540
▁뭔지	-2541
▁부모	-2542
됩니다	-2543
▁영화에서	-2544
he	-2545
▁워	-2546
아먹	-2547
253	-2548
956	-2549
▁촬영	-2550
것이다	-2551
한다는	-2552
▁863	-2553
▁914	-2554
▁목소리	-2555
▁장면은	-2556
ᄏᄏᄏᄏᄏ	-2557
▁1000	-2558
▁리메이크	-2559
▁유치하고	-2560
스로	-2561
한건	-2562
243	-2563
926	-2564
▁여성	-2565
▁왜이리	-2566
▁어렸을때	-2567
▁재미없고	-2568
점준	-2569
줄알	-2570
ᅲᅲᅲ	-2571
▁싫어	-2572
▁아프	-2573
▁우울	-2574
▁만들지	-2575
자들	-2576
하겠	-2577
139	-2578
609	-2579
626	-2580
828	-2581
▁못보	-2582
▁않음	-2583
▁880	-2584
▁명작이다	-2585
화가	-2586
658	-2587
679	-2588
▁노출	-2589
▁또한	-2590
▁지난	-2591
▁말하고	-2592
▁류	-2593
그라	-2594
많이	-2595
205	-2596
247	-2597
273	-2598
901	-2599
▁그려	-2600
▁졸라	-2601
봅니다	-2602
▁905	-2603
▁994	-2604
소한	-2605
254	-2606
629	-2607
641	-2608
853	-2609
971	-2610
▁46	-2611
▁거지	-2612
▁뜬금	-2613
▁만큼	-2614
▁작품이	-2615
//	-2616
▁면	-2617
▁줘	-2618
리에	-2619
분이	-2620
식이	-2621
싶다	-2622
역시	-2623
931	-2624
▁게임	-2625
▁사건	-2626
▁중에	-2627
배우들	-2628
▁ᄒᄒᄒ	-2629
▁모습이	-2630
▁비슷한	-2631
▁아니지만	-2632
르고	-2633
장이	-2634
정을	-2635
치게	-2636
146	-2637
255	-2638
959	-2639
▁비추	-2640
▁아오	-2641
▁이래	-2642
▁이연	-2643
아니고	-2644
▁최악이다	-2645
▁D	-2646
려면	-2647
무슨	-2648
274	-2649
606	-2650
857	-2651
▁가득	-2652
▁정치	-2653
▁철학	-2654
영화에	-2655
▁877	-2656
▁915	-2657
▁귀여운	-2658
▁그렇고	-2659
▁않았다	-2660
▁하는데	-2661
▁시간낭비	-2662
▁짐	-2663
▁찬	-2664
▁플	-2665
▁합	-2666
개봉	-2667
이의	-2668
자는	-2669
191	-2670
834	-2671
921	-2672
▁그의	-2673
▁않을	-2674
▁이어	-2675
▁아닐까	-2676
▁스토리에	-2677
였던	-2678
189	-2679
272	-2680
▁누군	-2681
▁보여준	-2682
하면서도	-2683
▁드라마를	-2684
?)	-2685
분에	-2686
인거	-2687
033	-2688
141	-2689
▁돌려	-2690
▁이상한	-2691
▁진부한	-2692
▁재밌었어요	-2693
▁좋았습니다	-2694
▁접	-2695
▁학	-2696
놓은	-2697
186	-2698
676	-2699
▁41	-2700
▁안맞	-2701
▁어찌	-2702
▁왠지	-2703
▁해피	-2704
있는데	-2705
▁좋았고	-2706
▁생각한다	-2707
가요	-2708
걸까	-2709
던지	-2710
세계	-2711
인은	-2712
져서	-2713
지못	-2714
176	-2715
275	-2716
621	-2717
▁경찰	-2718
▁스케	-2719
▁행동	-2720
▁755	-2721
▁마음을	-2722
▁부족한	-2723
▁화려한	-2724
▁1004	-2725
▁전체적으로	-2726
기억	-2727
805	-2728
▁남아	-2729
▁짱짱	-2730
▁그런데	-2731
▁못하고	-2732
▁얻	-2733
대사	-2734
250	-2735
659	-2736
835	-2737
847	-2738
875	-2739
951	-2740
▁16	-2741
▁귀신	-2742
▁눈이	-2743
면서도	-2744
▁감동적	-2745
▁반전이	-2746
▁안나오	-2747
▁너무나도	-2748
▁드라마가	-2749
▁잘봤습니다	-2750
▁영화였습니다	-2751
▁응	-2752
감을	-2753
수도	-2754
109	-2755
204	-2756
245	-2757
696	-2758
830	-2759
▁마치	-2760
▁먼저	-2761
▁미래	-2762
▁삶을	-2763
▁아는	-2764
▁아마	-2765
▁예전	-2766
▁전달	-2767
시간이	-2768
점짜리	-2769
▁같습니다	-2770
▁보고나서	-2771
심히	-2772
알바	-2773
자를	-2774
좋고	-2775
해주	-2776
..?	-2777
055	-2778
207	-2779
840	-2780
854	-2781
▁본다	-2782
▁손발	-2783
나온다	-2784
봤어요	-2785
재밌게	-2786
하는지	-2787
▁745	-2788
▁소재는	-2789
▁대단하다	-2790
▁무엇보다	-2791
▁ᄏᄏᄏᄏᄏᄏᄏᄏᄏᄏᄏᄏ	-2792
▁샤	-2793
238	-2794
▁대충	-2795
▁성공	-2796
▁알겠	-2797
▁어렵	-2798
▁잘생	-2799
▁한계	-2800
수있는	-2801
었네요	-2802
점준다	-2803
해주는	-2804
▁여자가	-2805
▁이야기가	-2806
반전	-2807
149	-2808
850	-2809
986	-2810
▁나만	-2811
만하면	-2812
▁890	-2813
▁912	-2814
▁이런게	-2815
or	-2816
▁:	-2817
▁월	-2818
▁퍼	-2819
649	-2820
966	-2821
지네요	-2822
▁955	-2823
▁이영화가	-2824
▁논	-2825
기다	-2826
마저	-2827
모습	-2828
252	-2829
▁그랬	-2830
▁나머	-2831
▁다소	-2832
▁메시	-2833
▁환상	-2834
사람이	-2835
▁나에게	-2836
▁애들이	-2837
▁인상깊	-2838
▁지금봐도	-2839
▁늙	-2840
▁뒷	-2841
▁웬	-2842
▁짓	-2843
▁춤	-2844
다운	-2845
보이	-2846
248	-2847
699	-2848
▁깊은	-2849
▁이젠	-2850
▁860	-2851
▁예고편	-2852
▁자신의	-2853
▁영화중에	-2854
극장	-2855
리도	-2856
이해	-2857
인을	-2858
270	-2859
▁눈을	-2860
▁시도	-2861
▁817	-2862
▁확실히	-2863
순간	-2864
스는	-2865
스릴	-2866
좋다	-2867
044	-2868
▁러브	-2869
▁와닿	-2870
▁조연	-2871
▁피해	-2872
고싶다	-2873
▁754	-2874
▁나온다	-2875
▁있었던	-2876
▁어이없는	-2877
내요	-2878
새끼	-2879
053	-2880
▁밑에	-2881
▁자유	-2882
닝타임	-2883
▁973	-2884
▁모습을	-2885
▁케이블	-2886
▁했지만	-2887
▁허접한	-2888
▁매력적인	-2889
▁뜨	-2890
▁힐	-2891
가족	-2892
번째	-2893
073	-2894
156	-2895
870	-2896
▁군대	-2897
▁글쎄	-2898
▁낭비	-2899
▁미소	-2900
▁심심	-2901
사람들	-2902
했으면	-2903
▁975	-2904
▁같네요	-2905
▁잘만든	-2906
▁좋았는데	-2907
▁A	-2908
눈물	-2909
려다	-2910
마음	-2911
말로	-2912
804	-2913
~^^	-2914
▁알아	-2915
만으로	-2916
지도않	-2917
▁744	-2918
▁그런가	-2919
▁내용을	-2920
▁좋았음	-2921
이제	-2922
지컬	-2923
특히	-2924
240	-2925
651	-2926
874	-2927
▁심리	-2928
도없고	-2929
스럽게	-2930
이에요	-2931
퀄리티	-2932
▁별로다	-2933
▁짜증나	-2934
▁영화이다	-2935
▁왜이렇게	-2936
▁프로그램	-2937
▁증	-2938
하하	-2939
▁나를	-2940
▁연애	-2941
▁취향	-2942
이렇게	-2943
▁837	-2944
▁감사합니다	-2945
▁ᅮ	-2946
▁붙	-2947
겟다	-2948
과는	-2949
로서	-2950
일뿐	-2951
절한	-2952
434	-2953
▁고민	-2954
하기만	-2955
▁960	-2956
▁보이는	-2957
▁부분이	-2958
▁역시나	-2959
▁딴	-2960
성애	-2961
어라	-2962
433	-2963
437	-2964
▁겁나	-2965
▁하루	-2966
였어요	-2967
▁992	-2968
▁감정이	-2969
▁제작비	-2970
▁스토리와	-2971
▁끊	-2972
더만	-2973
들만	-2974
로는	-2975
▁;;	-2976
▁ᄉᄇ	-2977
▁남주	-2978
▁다가	-2979
▁아놔	-2980
▁의외	-2981
지않는	-2982
▁해주는	-2983
▁느껴지는	-2984
▁영화보고	-2985
▁영화지만	-2986
무서	-2987
시켜	-2988
터리	-2989
할듯	-2990
▁그럼	-2991
▁실패	-2992
▁외국	-2993
▁젊은	-2994
▁찍은	-2995
없어서	-2996
▁사람을	-2997
▁세상에	-2998
▁어색한	-2999
▁연기에	-3000
▁저예산	-3001
▁카메라	-3002
▁+	-3003
▁G	-3004
소년	-3005
소재	-3006
었나	-3007
477	-3008
803	-3009
▁넘어	-3010
▁드는	-3011
▁해준	-3012
▁했던	-3013
▁화가	-3014
▁OST	-3015
▁나오고	-3016
▁사랑이	-3017
▁떨어지는	-3018
▁젤	-3019
저럭	-3020
쩐다	-3021
035	-3022
037	-3023
878	-3024
946	-3025
▁cg	-3026
▁감탄	-3027
▁느낀	-3028
▁순수한	-3029
▁아저씨	-3030
▁중간중간	-3031
▁처음이다	-3032
▁<	-3033
▁꾸	-3034
구려	-3035
는가	-3036
되지	-3037
202	-3038
544	-3039
▁오락	-3040
만드는	-3041
하세요	-3042
▁733	-3043
▁792	-3044
▁910	-3045
▁아닌데	-3046
▁여전히	-3047
▁씬	-3048
으론	-3049
이를	-3050
티비	-3051
278	-3052
455	-3053
842	-3054
▁가끔	-3055
▁역할	-3056
하려는	-3057
▁673	-3058
▁보는게	-3059
▁소재를	-3060
▁아니면	-3061
▁ᄏᄏᄏᄏᄏ	-3062
▁보지마세요	-3063
▁엑	-3064
다지	-3065
사는	-3066
와르	-3067
움을	-3068
453	-3069
802	-3070
832	-3071
▁기본	-3072
▁든다	-3073
▁특별	-3074
▁액션은	-3075
▁있다면	-3076
▁드라마는	-3077
▁w	-3078
▁곳	-3079
▁씁	-3080
명이	-3081
해보	-3082
454	-3083
666	-3084
▁나서	-3085
▁난다	-3086
▁맞는	-3087
▁섹시	-3088
▁이하	-3089
▁조폭	-3090
▁유쾌한	-3091
▁제작진	-3092
▁봤었는데	-3093
▁재미있음	-3094
▁꼴	-3095
▁밤	-3096
나올	-3097
232	-3098
661	-3099
671	-3100
▁마라	-3101
▁블랙	-3102
▁사극	-3103
▁슬픔	-3104
▁시선	-3105
▁유일	-3106
하다는	-3107
▁950	-3108
▁독특한	-3109
▁매력이	-3110
▁안하고	-3111
▁어이가	-3112
▁볼때마다	-3113
▁스토리를	-3114
니아	-3115
럽다	-3116
었어	-3117
위해	-3118
838	-3119
909	-3120
ᄒᄒᄒ	-3121
▁결론	-3122
▁까지	-3123
▁내생	-3124
▁리뷰	-3125
▁전에	-3126
▁호러	-3127
럭저럭	-3128
▁액션이	-3129
▁이유가	-3130
▁저렇게	-3131
▁연기력이	-3132
ou	-3133
▁폐	-3134
결말	-3135
트가	-3136
했을	-3137
473	-3138
▁가진	-3139
▁굿굿	-3140
▁다만	-3141
▁평생	-3142
▁757	-3143
▁868	-3144
▁귀엽고	-3145
▁그들의	-3146
▁끝나고	-3147
▁안되고	-3148
▁평범한	-3149
▁아름답고	-3150
▁쩔	-3151
먹고	-3152
하던	-3153
054	-3154
258	-3155
▁괴물	-3156
▁모자	-3157
▁미스	-3158
▁예쁜	-3159
▁이기	-3160
영화도	-3161
▁기대를	-3162
▁소름끼	-3163
▁흥미롭	-3164
래기	-3165
레스	-3166
씨가	-3167
었네	-3168
057	-3169
242	-3170
631	-3171
999	-3172
▁해주	-3173
▁573	-3174
▁707	-3175
▁875	-3176
▁감동적이고	-3177
▁돼	-3178
아라	-3179
었을	-3180
있네	-3181
펑펑	-3182
(?)	-3183
228	-3184
276	-3185
858	-3186
872	-3187
▁라이	-3188
▁살짝	-3189
▁악역	-3190
▁연예	-3191
▁일어	-3192
더라도	-3193
식으로	-3194
이라서	-3195
하지마	-3196
▁753	-3197
▁930	-3198
▁다큐멘	-3199
▁연기와	-3200
▁재밌었는데	-3201
▁밝	-3202
▁헛	-3203
끼리	-3204
시아	-3205
싶은	-3206
화를	-3207
208	-3208
888	-3209
▁굳이	-3210
▁깔끔	-3211
▁사이	-3212
▁시원	-3213
▁안됨	-3214
▁통해	-3215
▁희생	-3216
한다면	-3217
▁790	-3218
▁남는다	-3219
▁몰입이	-3220
▁보기엔	-3221
--	-3222
거냐	-3223
즈니	-3224
435	-3225
▁고전	-3226
▁봤다가	-3227
▁어린이	-3228
▁풋	-3229
들고	-3230
디어	-3231
▁과연	-3232
▁난해	-3233
▁분노	-3234
▁올라	-3235
▁용서	-3236
▁일상	-3237
버렸다	-3238
았어요	-3239
있어요	-3240
▁897	-3241
더라구요	-3242
▁사랑하는	-3243
▁아름답다	-3244
▁녹	-3245
원이	-3246
유치	-3247
편을	-3248
457	-3249
▁슈퍼	-3250
▁압권	-3251
▁종교	-3252
▁슬프다	-3253
▁어렸을	-3254
▁어릴적	-3255
았습니다	-3256
▁주인공의	-3257
▁겉	-3258
▁십	-3259
따라	-3260
어진	-3261
주얼	-3262
048	-3263
231	-3264
256	-3265
808	-3266
841	-3267
852	-3268
▁나타	-3269
▁스트	-3270
에서의	-3271
▁607	-3272
▁음악이	-3273
▁이건뭐	-3274
▁정말로	-3275
▁현실을	-3276
▁그럭저럭	-3277
▁짜증나는	-3278
▁하나하나	-3279
▁추천합니다	-3280
▁짠	-3281
▁톰	-3282
같음	-3283
걸로	-3284
까진	-3285
나가	-3286
듯이	-3287
한것	-3288
034	-3289
450	-3290
859	-3291
961	-3292
▁같음	-3293
▁불쾌	-3294
▁좋을	-3295
▁되었다	-3296
▁사랑에	-3297
▁아닌듯	-3298
▁잼있게	-3299
▁나왔으면	-3300
▁전기세가	-3301
▁생각합니다	-3302
른다	-3303
서야	-3304
있음	-3305
032	-3306
809	-3307
▁부터	-3308
▁재난	-3309
▁표절	-3310
구하고	-3311
▁940	-3312
▁열심히	-3313
▁이연걸	-3314
▁작품성	-3315
▁재미를	-3316
▁처음엔	-3317
▁I	-3318
▁칼	-3319
대는	-3320
무비	-3321
무섭	-3322
안되	-3323
제목	-3324
한국	-3325
209	-3326
839	-3327
848	-3328
▁막판	-3329
▁무지	-3330
▁포장	-3331
▁후속	-3332
으로서	-3333
▁713	-3334
▁954	-3335
▁더이상	-3336
▁보시길	-3337
▁만들어진	-3338
▁재미없네	-3339
an	-3340
▁챙	-3341
이터	-3342
038	-3343
239	-3344
430	-3345
821	-3346
▁개판	-3347
▁812	-3348
▁뮤지컬	-3349
▁신선한	-3350
▁아까워	-3351
▁영화냐	-3352
▁티비에서	-3353
▁재밌습니다	-3354
▁덜	-3355
▁밥	-3356
▁썩	-3357
▁축	-3358
▁침	-3359
기의	-3360
류의	-3361
불가	-3362
줌마	-3363
879	-3364
▁동물	-3365
▁보시	-3366
▁포기	-3367
지않은	-3368
▁813	-3369
▁공감이	-3370
▁기분이	-3371
▁싸이코	-3372
▁오그라	-3373
▁재밋게	-3374
▁진심으로	-3375
▁늦	-3376
▁던	-3377
▁뭉	-3378
겹다	-3379
버렸	-3380
이니	-3381
251	-3382
801	-3383
826	-3384
▁무협	-3385
▁소녀	-3386
▁영환	-3387
좋아요	-3388
▁그렇다	-3389
▁배우의	-3390
▁상상력	-3391
기로	-3392
대가	-3393
돌아	-3394
들에	-3395
보여	-3396
사를	-3397
▁감명	-3398
▁몸매	-3399
▁상처	-3400
▁자막	-3401
▁채널	-3402
▁사랑과	-3403
이유	-3404
이크	-3405
진심	-3406
▁고생	-3407
▁놀랍	-3408
▁되게	-3409
▁크게	-3410
▁현대	-3411
▁형편	-3412
점주는	-3413
했다는	-3414
▁547	-3415
▁볼만함	-3416
▁소재가	-3417
▁이유는	-3418
!!!!!	-3419
re	-3420
▁격	-3421
▁쩌	-3422
겼다	-3423
수는	-3424
시킨	-3425
줘서	-3426
히는	-3427
▁36	-3428
▁떠나	-3429
▁레이	-3430
▁말로	-3431
▁보러	-3432
▁사는	-3433
▁아침	-3434
▁있나	-3435
▁혹시	-3436
▁흐름	-3437
년전에	-3438
지않고	-3439
▁922	-3440
▁감동과	-3441
▁추억의	-3442
▁퀄리티	-3443
▁말이필요	-3444
▁이정도면	-3445
▁퇴	-3446
와는	-3447
이며	-3448
쵝오	-3449
할까	-3450
829	-3451
▁31	-3452
▁같아	-3453
▁그지	-3454
▁수도	-3455
▁쓸데	-3456
▁전투	-3457
▁폭력	-3458
▁표정	-3459
연기가	-3460
▁833	-3461
▁934	-3462
▁그다지	-3463
▁봤으면	-3464
▁필요한	-3465
▁징	-3466
그렇	-3467
리기	-3468
봤음	-3469
아주	-3470
표현	-3471
042	-3472
▁가서	-3473
▁동생	-3474
▁삶의	-3475
▁쉽게	-3476
평점이	-3477
▁없지만	-3478
▁하네요	-3479
▁등장인물	-3480
▁생각나는	-3481
▁쇼	-3482
▁엘	-3483
명의	-3484
상이	-3485
안에	-3486
오빠	-3487
웠음	-3488
해준	-3489
836	-3490
849	-3491
▁두고	-3492
▁어제	-3493
▁오버	-3494
보는게	-3495
아까운	-3496
▁814	-3497
▁928	-3498
▁마무리	-3499
▁볼수록	-3500
▁소름돋	-3501
▁지루하지	-3502
▁지루해서	-3503
▁필요없다	-3504
▁꼽	-3505
▁맡	-3506
▁잤	-3507
수의	-3508
아님	-3509
었지	-3510
지말	-3511
▁강렬	-3512
▁남녀	-3513
▁드러	-3514
▁부끄	-3515
▁북한	-3516
▁설레	-3517
▁신경	-3518
▁정서	-3519
▁963	-3520
▁몇번을	-3521
▁우리가	-3522
▁좋았던	-3523
재밌어요	-3524
▁보고싶다	-3525
▁필요없는	-3526
▁해피엔딩	-3527
▁재미있네요	-3528
지의	-3529
058	-3530
▁그립	-3531
▁말할	-3532
▁무시	-3533
▁아련	-3534
▁태어	-3535
▁힐링	-3536
까지는	-3537
속에서	-3538
하다가	-3539
▁815	-3540
▁가볍게	-3541
▁나중에	-3542
▁비주얼	-3543
▁사람의	-3544
▁스케일	-3545
▁보고싶은	-3546
▁좋습니다	-3547
▁잇	-3548
▁컨	-3549
도가	-3550
언가	-3551
040	-3552
279	-3553
432	-3554
▁남을	-3555
▁반성	-3556
▁비극	-3557
▁사기	-3558
▁산만	-3559
▁속편	-3560
▁773	-3561
▁끝나는	-3562
▁디즈니	-3563
▁반전도	-3564
▁소재로	-3565
▁수준이	-3566
▁연출도	-3567
▁음악도	-3568
▁i	-3569
▁몽	-3570
▁움	-3571
▁활	-3572
독교	-3573
르노	-3574
엄마	-3575
오글	-3576
의미	-3577
이자	-3578
전쟁	-3579
039	-3580
201	-3581
533	-3582
▁ᄋᄋ	-3583
▁거짓	-3584
▁눈빛	-3585
▁미치	-3586
▁선생	-3587
▁의심	-3588
▁이루	-3589
▁있게	-3590
▁조잡	-3591
버리고	-3592
재미없	-3593
▁몰라도	-3594
▁제목이	-3595
▁하면서	-3596
▁끄	-3597
관계	-3598
에만	-3599
정신	-3600
중의	-3601
친다	-3602
831	-3603
851	-3604
▁국민	-3605
▁보이	-3606
▁소장	-3607
▁없나	-3608
▁의문	-3609
▁있지	-3610
▁794	-3611
▁854	-3612
▁좋아서	-3613
▁뇌	-3614
206	-3615
475	-3616
▁김기	-3617
▁능력	-3618
▁말을	-3619
▁본방	-3620
▁심각	-3621
▁올해	-3622
▁일부	-3623
▁통쾌	-3624
하기도	-3625
▁750	-3626
▁970	-3627
▁988	-3628
▁봐야할	-3629
?!	-3630
▁찡	-3631
거운	-3632
나이	-3633
밋밋	-3634
일본	-3635
자단	-3636
찝찝	-3637
030	-3638
577	-3639
▁건지	-3640
▁깊이	-3641
▁스크	-3642
▁역겨	-3643
거리는	-3644
봣는데	-3645
연기도	-3646
영화임	-3647
캐릭터	-3648
▁615	-3649
▁슬프고	-3650
▁시간을	-3651
▁싸구려	-3652
▁아이들	-3653
▁언제나	-3654
재미없다	-3655
▁ᄌ	-3656
▁윌	-3657
가능	-3658
그인	-3659
두고	-3660
봐요	-3661
있어	-3662
259	-3663
▁1,	-3664
▁광고	-3665
▁라고	-3666
했는지	-3667
▁마세요	-3668
▁엉성한	-3669
▁인생을	-3670
▁점수를	-3671
영화라고	-3672
▁다시한번	-3673
on	-3674
▁쉬	-3675
▁흡	-3676
라스	-3677
마스	-3678
봤던	-3679
트콤	-3680
438	-3681
470	-3682
▁가까	-3683
▁깨닫	-3684
▁받아	-3685
▁악당	-3686
▁않게	-3687
▁죽여	-3688
▁지구	-3689
사람은	-3690
▁만들고	-3691
▁쓰래기	-3692
▁이제야	-3693
▁있습니다	-3694
ad	-3695
▁농	-3696
구니	-3697
050	-3698
051	-3699
458	-3700
▁스티	-3701
▁싶어	-3702
▁아픔	-3703
▁오랫	-3704
▁이쁜	-3705
▁인터	-3706
▁존경	-3707
▁펑펑	-3708
▁612	-3709
▁623	-3710
▁불구하고	-3711
▁헐리우드	-3712
드의	-3713
만화	-3714
뻐서	-3715
우리	-3716
이후	-3717
하신	-3718
222	-3719
241	-3720
▁그린	-3721
▁방금	-3722
▁생애	-3723
▁싫다	-3724
▁이때	-3725
▁하이	-3726
▁홍보	-3727
감독이	-3728
장면이	-3729
▁680	-3730
▁793	-3731
▁뛰어난	-3732
▁봣는데	-3733
▁웃기고	-3734
▁이해할	-3735
▁재밌네	-3736
▁사랑스러운	-3737
▁뉴	-3738
▁쫌	-3739
느라	-3740
란다	-3741
해진	-3742
▁그걸	-3743
▁둘다	-3744
▁섬세	-3745
▁평이	-3746
▁풋풋	-3747
하시는	-3748
...?	-3749
▁894	-3750
▁974	-3751
▁낮아서	-3752
▁어려운	-3753
▁액션영화	-3754
▁영화라는	-3755
▁납	-3756
▁뜻	-3757
만점	-3758
하셨	-3759
052	-3760
070	-3761
286	-3762
871	-3763
▁그것	-3764
▁나가	-3765
▁딱히	-3766
▁씁쓸	-3767
▁잊을	-3768
▁785	-3769
▁835	-3770
▁850	-3771
▁917	-3772
▁눈물을	-3773
▁드럽게	-3774
▁마이너	-3775
▁산으로	-3776
▁시사회	-3777
▁지루할	-3778
▁^	-3779
▁줬	-3780
가락	-3781
나왔	-3782
로우	-3783
아가	-3784
041	-3785
236	-3786
575	-3787
889	-3788
▁니콜	-3789
▁되고	-3790
▁발전	-3791
▁살다	-3792
▁새벽	-3793
▁연결	-3794
▁죄다	-3795
영화라	-3796
▁결말도	-3797
▁결말은	-3798
▁무언가	-3799
▁아쉬움	-3800
▁재밌었음	-3801
▁끔	-3802
▁쌍	-3803
▁좌	-3804
괜찮	-3805
남는	-3806
식을	-3807
여운	-3808
을거	-3809
이션	-3810
자고	-3811
▁단연	-3812
▁밋밋	-3813
▁생생	-3814
▁할말	-3815
아니라	-3816
집니다	-3817
▁624	-3818
▁795	-3819
▁느낌을	-3820
▁느와르	-3821
▁베스트	-3822
▁이따위	-3823
▁정신병	-3824
▁재미있었다	-3825
▁꽃	-3826
▁닥	-3827
▁익	-3828
▁푹	-3829
감도	-3830
나와	-3831
버리	-3832
줘야	-3833
학년	-3834
한지	-3835
377	-3836
478	-3837
574	-3838
991	-3839
▁고통	-3840
▁대표	-3841
▁때문	-3842
▁바뀌	-3843
▁성인	-3844
▁스포	-3845
▁일반	-3846
▁좀더	-3847
▁쵝오	-3848
▁하하	-3849
수없는	-3850
한다고	-3851
▁982	-3852
▁어머니	-3853
▁있어요	-3854
▁지금은	-3855
▁닮	-3856
성에	-3857
온다	-3858
작이	-3859
하라	-3860
075	-3861
452	-3862
474	-3863
▁고등	-3864
▁나옴	-3865
▁나은	-3866
▁남겨	-3867
▁묘사	-3868
▁아나	-3869
랍니다	-3870
였지만	-3871
▁남자가	-3872
▁못했다	-3873
▁몰입해서	-3874
▁배우들도	-3875
▁일본영화	-3876
▁싱	-3877
▁잭	-3878
나도	-3879
피소	-3880
하구	-3881
573	-3882
▁많다	-3883
▁분들	-3884
▁872	-3885
▁느끼는	-3886
▁보니까	-3887
▁여기서	-3888
▁연기자	-3889
▁출연진	-3890
▁폴	-3891
사의	-3892
ver	-3893
▁과장	-3894
▁끝난	-3895
▁되지	-3896
▁시걸	-3897
▁시시	-3898
▁안돼	-3899
▁외계	-3900
▁우주	-3901
아까움	-3902
하려고	-3903
▁뻔하고	-3904
▁스스로	-3905
▁헐리웃	-3906
▁현실적인	-3907
▁재미없어요	-3908
at	-3909
ie	-3910
▁냉	-3911
▁체	-3912
답답	-3913
소설	-3914
249	-3915
846	-3916
881	-3917
▁슬퍼	-3918
▁아들	-3919
▁아류	-3920
▁에이	-3921
▁인도	-3922
▁한데	-3923
급영화	-3924
스릴러	-3925
아니다	-3926
었는지	-3927
으로써	-3928
자체가	-3929
캐스팅	-3930
▁533	-3931
▁683	-3932
▁804	-3933
▁978	-3934
▁견자단	-3935
▁단순한	-3936
▁떠나서	-3937
▁로그인	-3938
▁멋지다	-3939
▁시대를	-3940
▁없다는	-3941
▁작가가	-3942
▁아직까지	-3943
▁쪽	-3944
셔서	-3945
영이	-3946
인들	-3947
함에	-3948
226	-3949
271	-3950
ing	-3951
▁단지	-3952
▁발로	-3953
▁상업	-3954
▁영국	-3955
▁전반	-3956
겠네요	-3957
▁553	-3958
▁633	-3959
▁712	-3960
▁810	-3961
▁874	-3962
▁같아서	-3963
▁모든게	-3964
▁무엇을	-3965
▁생각없이	-3966
▁이거보고	-3967
▁뽑	-3968
▁앤	-3969
도안	-3970
우고	-3971
점주	-3972
져요	-3973
078	-3974
459	-3975
▁높다	-3976
▁뒤로	-3977
▁레전	-3978
▁벌써	-3979
▁와우	-3980
▁찝찝	-3981
▁흔한	-3982
줍니다	-3983
."""	-3984
▁958	-3985
▁옛날에	-3986
▁전문가	-3987
▁집에서	-3988
▁할말이	-3989
▁러닝타임	-3990
▁영화보는	-3991
▁"""""""	-3992
▁푸	-3993
과의	-3994
긴다	-3995
로도	-3996
만드	-3997
인트	-3998
쳤다	-3999
246	-4000
289	-4001
876	-4002
▁명품	-4003
▁시각	-4004
▁연속	-4005
▁외모	-4006
▁은근	-4007
▁지켜	-4008
내용도	-4009
▁780	-4010
▁840	-4011
▁937	-4012
▁누구나	-4013
▁만든다	-4014
▁싶네요	-4015
▁안보고	-4016
▁않지만	-4017
▁작품을	-4018
▁즐겁게	-4019
▁잔잔하고	-4020
▁이런영화가	-4021
▁ᄏᄏᄏᄏᄏᄏᄏᄏ	-4022
BS	-4023
▁줌	-4024
▁흉	-4025
계의	-4026
나옴	-4027
노래	-4028
럽고	-4029
았고	-4030
▁다니	-4031
▁발견	-4032
▁주변	-4033
겠어요	-4034
인가요	-4035
▁585	-4036
▁위대한	-4037
▁청소년	-4038
▁1026	-4039
▁영화에요	-4040
▁기대안하고	-4041
▁ᄋ	-4042
▁떡	-4043
러디	-4044
려요	-4045
부족	-4046
시작	-4047
씬은	-4048
양이	-4049
002	-4050
059	-4051
072	-4052
074	-4053
▁놀랐	-4054
▁망쳐	-4055
▁보길	-4056
▁안봤	-4057
▁않아	-4058
▁에휴	-4059
더라면	-4060
리스마	-4061
아버지	-4062
처구니	-4063
▁727	-4064
▁765	-4065
▁972	-4066
▁기독교	-4067
▁생각하고	-4068
▁유쾌하고	-4069
▁섞	-4070
거임	-4071
냐고	-4072
젠장	-4073
편의	-4074
540	-4075
▁갈등	-4076
▁공부	-4077
▁맨날	-4078
▁못할	-4079
▁믿을	-4080
▁반복	-4081
▁빼고	-4082
▁특이	-4083
소리가	-4084
▁767	-4085
▁932	-4086
▁ᅲᅲᅲ	-4087
▁김기덕	-4088
▁대사가	-4089
▁생각나	-4090
▁시트콤	-4091
▁있네요	-4092
▁초반에	-4093
배우들의	-4094
▁E	-4095
따구	-4096
물을	-4097
시에	-4098
애들	-4099
언니	-4100
장난	-4101
호가	-4102
439	-4103
530	-4104
▁무비	-4105
▁속에	-4106
▁처럼	-4107
▁특수	-4108
▁한참	-4109
스러움	-4110
시간에	-4111
아까워	-4112
▁768	-4113
▁777	-4114
▁마이클	-4115
▁빠져들	-4116
▁아이돌	-4117
▁인생의	-4118
▁탄탄한	-4119
▁하는지	-4120
▁힘들다	-4121
봤습니다	-4122
▁시간가는	-4123
▁쥐	-4124
▁쿠	-4125
불어	-4126
지어	-4127
쳐서	-4128
221	-4129
806	-4130
▁가져	-4131
▁결과	-4132
▁국내	-4133
▁다양	-4134
▁문화	-4135
▁볼게	-4136
▁움직	-4137
▁치밀	-4138
▁편견	-4139
재밌다	-4140
▁없는데	-4141
▁음악과	-4142
▁있어야	-4143
▁좋아할	-4144
▁모르겠고	-4145
▁빡	-4146
간의	-4147
겠음	-4148
되서	-4149
석이	-4150
정은	-4151
제작	-4152
키는	-4153
하려	-4154
했네	-4155
071	-4156
281	-4157
479	-4158
▁검색	-4159
▁관심	-4160
▁꿈을	-4161
▁떠오	-4162
▁미모	-4163
▁여행	-4164
▁제로	-4165
▁찌질	-4166
▁타임	-4167
비디오	-4168
시키는	-4169
▁544	-4170
▁울었다	-4171
▁이쁘고	-4172
겠습니다	-4173
▁그렇다고	-4174
▁보고나면	-4175
▁안타깝다	-4176
▁최고입니다	-4177
bs	-4178
ll	-4179
▁f	-4180
계속	-4181
날때	-4182
라가	-4183
아프	-4184
와의	-4185
이로	-4186
편도	-4187
570	-4188
▁끌어	-4189
▁로봇	-4190
▁무척	-4191
▁코난	-4192
▁해리	-4193
차라리	-4194
하겠다	-4195
하다니	-4196
▁598	-4197
▁대부분	-4198
▁아줌마	-4199
▁있으면	-4200
▁즐거운	-4201
▁영화였어요	-4202
ov	-4203
▁[	-4204
당한	-4205
트맨	-4206
하진	-4207
856	-4208
▁고마	-4209
▁노답	-4210
▁달달	-4211
▁뭉클	-4212
▁불러	-4213
▁우와	-4214
야말로	-4215
▁895	-4216
▁덕분에	-4217
▁말하는	-4218
▁멍청한	-4219
▁사랑의	-4220
▁아깝지	-4221
▁에피소	-4222
▁의외로	-4223
▁잔인한	-4224
▁독립영화	-4225
▁영화인듯	-4226
▁따뜻해지는	-4227
▁낳	-4228
▁센	-4229
▁콜	-4230
씨의	-4231
079	-4232
229	-4233
▁기술	-4234
▁내려	-4235
▁높아	-4236
▁새롭	-4237
▁슬펐	-4238
▁아역	-4239
▁왜케	-4240
▁좋게	-4241
▁할까	-4242
으니까	-4243
▁007	-4244
▁610	-4245
▁800	-4246
▁본영화	-4247
▁재밋다	-4248
▁히어로	-4249
▁긴장감도	-4250
▁볼만하다	-4251
▁쓰레기다	-4252
▁아쉽네요	-4253
▁작품이다	-4254
▁재미있었어요	-4255
**	-4256
몰입	-4257
성은	-4258
테일	-4259
472	-4260
886	-4261
▁경험	-4262
▁눈에	-4263
▁늘어	-4264
▁동안	-4265
▁많아	-4266
▁복잡	-4267
▁섹스	-4268
▁울고	-4269
▁인내	-4270
▁자살	-4271
▁짝퉁	-4272
▁쩐다	-4273
가지고	-4274
내용이	-4275
▁594	-4276
▁614	-4277
▁나오면	-4278
▁보았다	-4279
▁봤더니	-4280
▁비현실	-4281
▁이후로	-4282
▁인간이	-4283
▁신선하고	-4284
▁초등학생	-4285
om	-4286
▁업	-4287
거라	-4288
기분	-4289
사수	-4290
이스	-4291
537	-4292
▁거슬	-4293
▁만나	-4294
▁세월	-4295
▁신파	-4296
▁암튼	-4297
▁조합	-4298
▁죽은	-4299
▁최강	-4300
았지만	-4301
용으로	-4302
장에서	-4303
▁703	-4304
▁705	-4305
▁the	-4306
▁감정을	-4307
▁무섭다	-4308
▁빼고는	-4309
▁사랑은	-4310
▁유명한	-4311
▁좋지만	-4312
▁어처구니	-4313
▁모르겠지만	-4314
▁ᄀ	-4315
▁썼	-4316
▁척	-4317
거면	-4318
것만	-4319
관이	-4320
미가	-4321
버트	-4322
살다	-4323
성치	-4324
아아	-4325
엇다	-4326
저도	-4327
▁거기	-4328
▁극치	-4329
▁민망	-4330
▁박진	-4331
▁어휴	-4332
▁오바	-4333
▁힘이	-4334
편보다	-4335
했네요	-4336
▁!!!	-4337
▁595	-4338
▁663	-4339
▁798	-4340
▁남자의	-4341
▁박수를	-4342
▁아이가	-4343
▁없었던	-4344
▁영화들	-4345
▁원작의	-4346
▁장면에서	-4347
▁흥미로운	-4348
▁쓰레기같은	-4349
"""""""	-4350
대를	-4351
사이	-4352
영환	-4353
체가	-4354
함은	-4355
해지	-4356
431	-4357
444	-4358
▁방법	-4359
▁작은	-4360
▁조선	-4361
▁틀어	-4362
▁허세	-4363
갈수록	-4364
▁698	-4365
▁918	-4366
▁946	-4367
▁981	-4368
▁더러운	-4369
▁레전드	-4370
▁멋있다	-4371
▁보인다	-4372
▁손발이	-4373
드립니다	-4374
▁연기력도	-4375
▁좋았지만	-4376
만을	-4377
버림	-4378
어이	-4379
였고	-4380
원작	-4381
046	-4382
578	-4383
733	-4384
▁가면	-4385
▁겨울	-4386
▁달라	-4387
▁바꿔	-4388
▁살고	-4389
▁않나	-4390
▁웃김	-4391
▁일품	-4392
▁직접	-4393
거같다	-4394
버스터	-4395
점정도	-4396
▁690	-4397
▁725	-4398
▁더불어	-4399
▁웃음이	-4400
▁하나의	-4401
▁개연성이	-4402
▁지루하게	-4403
▁카리스마	-4404
▁학교에서	-4405
▁갠	-4406
▁됨	-4407
▁뱀	-4408
▁픽	-4409
상황	-4410
적은	-4411
▁게이	-4412
▁김민	-4413
▁삶에	-4414
▁설마	-4415
▁어우	-4416
▁우정	-4417
▁일이	-4418
▁죽을	-4419
▁챙겨	-4420
버리는	-4421
없네요	-4422
▁537	-4423
▁667	-4424
▁718	-4425
▁870	-4426
▁본다면	-4427
▁역대급	-4428
▁완전히	-4429
▁의미를	-4430
사람들이	-4431
▁1002	-4432
▁유치하다	-4433
▁좋았으나	-4434
.........	-4435
VD	-4436
▁멘	-4437
▁컴	-4438
▁탐	-4439
것들	-4440
려나	-4441
로만	-4442
받은	-4443
제가	-4444
535	-4445
▁가벼	-4446
▁교육	-4447
▁다룬	-4448
▁못해	-4449
▁빌려	-4450
▁제이	-4451
그대로	-4452
었을까	-4453
에대한	-4454
▁665	-4455
▁게다가	-4456
▁누군가	-4457
▁스크린	-4458
▁유치함	-4459
▁이유를	-4460
▁한번쯤	-4461
▁생각하는	-4462
▁재밌다고	-4463
▁좋겠어요	-4464
▁지루했다	-4465
▁기대했는데	-4466
감은	-4467
동생	-4468
레딧	-4469
설정	-4470
성의	-4471
세상	-4472
우기	-4473
이래	-4474
인도	-4475
주가	-4476
했어	-4477
402	-4478
571	-4479
▁그거	-4480
▁기가	-4481
▁끝이	-4482
▁똑같	-4483
▁먹고	-4484
▁모를	-4485
▁못생	-4486
▁미드	-4487
▁비판	-4488
▁정의	-4489
▁학생	-4490
년만에	-4491
해진다	-4492
▁625	-4493
▁710	-4494
▁979	-4495
▁뛰어넘	-4496
▁뿐이다	-4497
▁포르노	-4498
▁지나치게	-4499
▁평점보고	-4500
▁꽝	-4501
가슴	-4502
갔다	-4503
그리	-4504
머리	-4505
아직	-4506
억지	-4507
요일	-4508
편에	-4509
031	-4510
440	-4511
471	-4512
548	-4513
572	-4514
▁깜짝	-4515
▁많고	-4516
▁보긴	-4517
▁보며	-4518
▁여태	-4519
▁영혼	-4520
▁화끈	-4521
긴한데	-4522
끝까지	-4523
배우가	-4524
본영화	-4525
재밌음	-4526
하던데	-4527
▁515	-4528
▁590	-4529
▁664	-4530
▁재미잇	-4531
▁패러디	-4532
▁표현한	-4533
▁보여주고	-4534
▁잊혀지지	-4535
▁좋아해서	-4536
▁l	-4537
▁엠	-4538
▁옆	-4539
▁웨	-4540
▁탁	-4541
는건	-4542
니깐	-4543
리언	-4544
물이	-4545
받고	-4546
운드	-4547
436	-4548
532	-4549
▁당연	-4550
▁도전	-4551
▁봤을	-4552
▁이끌	-4553
▁이용	-4554
▁조용	-4555
▁지겨	-4556
▁투자	-4557
▁모르게	-4558
▁못한다	-4559
▁싶은데	-4560
▁않을까	-4561
▁알바들	-4562
▁이쁘다	-4563
▁전설의	-4564
▁느껴진다	-4565
▁드립니다	-4566
▁진부하고	-4567
ar	-4568
▁p	-4569
▁런	-4570
▁콩	-4571
니당	-4572
루스	-4573
명을	-4574
부작	-4575
시즌	-4576
아쉽	-4577
요즘	-4578
임을	-4579
있나	-4580
제발	-4581
342	-4582
476	-4583
546	-4584
555	-4585
▁몇몇	-4586
▁커플	-4587
▁해결	-4588
들이랑	-4589
학교때	-4590
▁618	-4591
▁878	-4592
▁감동의	-4593
▁들었다	-4594
▁반개도	-4595
▁봤을때	-4596
▁아까울	-4597
▁우리의	-4598
▁전개도	-4599
▁좋았을	-4600
▁주성치	-4601
▁사람들의	-4602
▁이해하기	-4603
▁다큐멘터리	-4604
▁사랑이야기	-4605
▁e	-4606
▁엽	-4607
냄새	-4608
먹는	-4609
배경	-4610
솔직	-4611
슬프	-4612
신은	-4613
했나	-4614
▁4.	-4615
▁관한	-4616
▁김수	-4617
▁따로	-4618
▁레알	-4619
▁아닙	-4620
▁영어	-4621
▁이정	-4622
▁잠깐	-4623
▁타이	-4624
보지마	-4625
인들이	-4626
▁518	-4627
▁545	-4628
▁568	-4629
▁677	-4630
▁700	-4631
▁가슴에	-4632
▁대해서	-4633
▁모두가	-4634
▁볼수있	-4635
▁재미와	-4636
▁감동적이다	-4637
▁좋아하는데	-4638
▁한국영화는	-4639
▁팀	-4640
놈들	-4641
로써	-4642
분은	-4643
비가	-4644
아나	-4645
아무	-4646
임스	-4647
자나	-4648
출연	-4649
토록	-4650
회가	-4651
579	-4652
▁못함	-4653
▁세련	-4654
▁아기	-4655
▁인기	-4656
▁젠장	-4657
감독의	-4658
보다도	-4659
점이다	-4660
▁597	-4661
▁730	-4662
▁903	-4663
▁개막장	-4664
▁그녀의	-4665
▁넘치는	-4666
▁보려고	-4667
▁보여줬	-4668
▁볼거리	-4669
사람들은	-4670
▁괜찮은데	-4671
▁무섭지도	-4672
ᄏᄏᄏᄏᄏᄏᄏᄏᄏᄏᄏᄏᄏᄏᄏᄏ	-4673
bb	-4674
▁빅	-4675
▁쏟	-4676
▁탑	-4677
다음	-4678
뻔한	-4679
속의	-4680
식의	-4681
이걸	-4682
이기	-4683
이러	-4684
049	-4685
▁감흥	-4686
▁공짜	-4687
▁국가	-4688
▁담아	-4689
▁대중	-4690
▁변태	-4691
▁어지	-4692
▁응원	-4693
▁이럴	-4694
▁짜임	-4695
▁착한	-4696
▁필름	-4697
♥♥♥	-4698
그래서	-4699
은영화	-4700
..^^	-4701
▁1,2	-4702
▁똑같은	-4703
▁스파이	-4704
▁점수가	-4705
▁참으로	-4706
좋아하는	-4707
▁부족하다	-4708
▁앞으로도	-4709
▁왠만하면	-4710
▁웃기지도	-4711
▁h	-4712
▁쏘	-4713
▁옥	-4714
기지	-4715
씬이	-4716
포터	-4717
076	-4718
456	-4719
534	-4720
▁류승	-4721
▁뭐라	-4722
▁안본	-4723
▁없지	-4724
▁올려	-4725
▁이도	-4726
▁할리	-4727
되었다	-4728
▁605	-4729
▁617	-4730
▁882	-4731
▁말아먹	-4732
▁우리는	-4733
▁작품은	-4734
▁죽이고	-4735
▁1008	-4736
▁아름다움	-4737
▁이제서야	-4738
▁재밌던데	-4739
▁봉	-4740
▁찰	-4741
느니	-4742
님들	-4743
받는	-4744
버그	-4745
삭제	-4746
시청	-4747
얼굴	-4748
요소	-4749
자연	-4750
주연	-4751
.^^	-4752
▁간다	-4753
▁감히	-4754
▁개뿔	-4755
▁겨우	-4756
▁내면	-4757
▁대화	-4758
▁보자	-4759
▁아동	-4760
▁야동	-4761
▁잊지	-4762
▁주말	-4763
▁풍경	-4764
되네요	-4765
려다가	-4766
연기력	-4767
..;;	-4768
▁904	-4769
▁DVD	-4770
▁명작이	-4771
▁없어요	-4772
▁있는지	-4773
▁행복한	-4774
지도않고	-4775
▁1001	-4776
▁2014	-4777
▁긴장감이	-4778
▁보여준다	-4779
▁스토리의	-4780
▁있었지만	-4781
.,	-4782
▁k	-4783
▁y	-4784
▁됬	-4785
▁술	-4786
만은	-4787
문제	-4788
소녀	-4789
얘기	-4790
우가	-4791
점줌	-4792
036	-4793
▁2.	-4794
▁받을	-4795
▁블록	-4796
▁빈약	-4797
▁신비	-4798
▁싶을	-4799
▁악마	-4800
▁욕망	-4801
▁이민	-4802
▁자주	-4803
▁제시	-4804
스타일	-4805
이영화	-4806
▁692	-4807
▁797	-4808
▁심하게	-4809
▁원작이	-4810
▁장르가	-4811
▁정도의	-4812
▁하는거	-4813
▁할머니	-4814
▁잼있어요	-4815
▁캐릭터가	-4816
▁말도안되는	-4817
▁영화보면서	-4818
▁맹	-4819
▁쩝	-4820
겨진	-4821
나다	-4822
더빙	-4823
드시	-4824
무지	-4825
역사	-4826
이들	-4827
초반	-4828
후반	-4829
539	-4830
737	-4831
▁강력	-4832
▁깨달	-4833
▁무술	-4834
▁어두	-4835
▁오로	-4836
▁인해	-4837
있어서	-4838
▁723	-4839
▁774	-4840
▁몰입감	-4841
▁생각함	-4842
▁왜이래	-4843
▁있구나	-4844
보고싶다	-4845
▁어린시절	-4846
▁보았습니다	-4847
▁멈	-4848
▁육	-4849
게요	-4850
년의	-4851
도는	-4852
루즈	-4853
았을	-4854
애가	-4855
오늘	-4856
원의	-4857
008	-4858
542	-4859
▁다루	-4860
▁드림	-4861
▁보통	-4862
▁수고	-4863
▁최초	-4864
장면은	-4865
했다고	-4866
▁490	-4867
▁524	-4868
▁580	-4869
▁감명깊	-4870
▁그당시	-4871
▁깨닫게	-4872
▁배우를	-4873
▁세상을	-4874
▁한심한	-4875
▁재미없게	-4876
▁짜증난다	-4877
▁끈	-4878
관람	-4879
드로	-4880
라기	-4881
러워	-4882
리카	-4883
어여	-4884
음이	-4885
인것	-4886
인과	-4887
508	-4888
538	-4889
▁그건	-4890
▁기발	-4891
▁떠올	-4892
▁설득	-4893
▁아픈	-4894
▁안볼	-4895
▁짝이	-4896
▁찍어	-4897
어떻게	-4898
자들이	-4899
▁620	-4900
▁843	-4901
▁관객을	-4902
▁노래도	-4903
▁막판에	-4904
▁문제가	-4905
▁수준의	-4906
▁않네요	-4907
▁영원히	-4908
▁영화네	-4909
▁위해서	-4910
▁잼있다	-4911
보는내내	-4912
▁개연성도	-4913
▁뿌	-4914
▁옷	-4915
개인	-4916
능력	-4917
▁둘이	-4918
▁방영	-4919
▁사진	-4920
▁이소	-4921
▁작위	-4922
▁전율	-4923
▁하네	-4924
년도에	-4925
▁587	-4926
▁637	-4927
▁675	-4928
▁996	-4929
▁내가본	-4930
▁분들은	-4931
▁자신을	-4932
▁자신이	-4933
▁죽는줄	-4934
▁훈훈한	-4935
것같아요	-4936
마지막에	-4937
▁ᅲᅲᅲᅲ	-4938
▁생각하면	-4939
▁명작입니다	-4940
▁깎	-4941
▁엿	-4942
▁칭	-4943
냈다	-4944
는대	-4945
모든	-4946
지요	-4947
추기	-4948
티브	-4949
001	-4950
408	-4951
OOO	-4952
▁낚시	-4953
▁만한	-4954
▁무리	-4955
▁바꾸	-4956
▁범인	-4957
▁볼거	-4958
▁살려	-4959
▁우려	-4960
▁위로	-4961
▁해라	-4962
▁효과	-4963
▁137	-4964
▁433	-4965
▁613	-4966
▁627	-4967
▁717	-4968
▁가치가	-4969
▁그렇지	-4970
▁답답한	-4971
▁동성애	-4972
▁미스터	-4973
▁보다는	-4974
▁분위기가	-4975
▁생각나서	-4976
▁있었는데	-4977
▁시간가는줄	-4978
en	-4979
▁앉	-4980
건만	-4981
드를	-4982
리네	-4983
보자	-4984
분의	-4985
연이	-4986
왔다	-4987
이어	-4988
취향	-4989
통령	-4990
006	-4991
549	-4992
735	-4993
▁결정	-4994
▁등등	-4995
▁모험	-4996
▁오빠	-4997
▁유지	-4998
▁인디	-4999
▁잔뜩	-5000
▁테러	-5001
▁하늘	-5002
▁해석	-5003
겠다는	-5004
기에는	-5005
다는걸	-5006
듭니다	-5007
분들은	-5008
▁770	-5009
▁999	-5010
▁기다려	-5011
▁나오지	-5012
▁대놓고	-5013
▁디테일	-5014
▁오랜만	-5015
▁중요한	-5016
▁만들어도	-5017
▁보지마라	-5018
▁알겠는데	-5019
▁이런영화를	-5020
▁n	-5021
겨서	-5022
그만	-5023
다큐	-5024
데이	-5025
라인	-5026
바로	-5027
부를	-5028
세포	-5029
쓰고	-5030
어린	-5031
피스	-5032
442	-5033
▁남은	-5034
▁대본	-5035
▁도망	-5036
▁아예	-5037
▁야구	-5038
▁여름	-5039
▁올리	-5040
▁장애	-5041
▁제외	-5042
▁조니	-5043
▁지났	-5044
만큼은	-5045
지말고	-5046
하고자	-5047
▁443	-5048
▁724	-5049
▁802	-5050
▁888	-5051
▁929	-5052
▁느낄수	-5053
▁만들면	-5054
▁비하면	-5055
▁연기잘	-5056
▁의미가	-5057
▁재밌을	-5058
▁죽이는	-5059
▁추억이	-5060
▁현실성	-5061
배우들이	-5062
▁1011	-5063
▁1021	-5064
▁만들다니	-5065
▁비디오로	-5066
▁안타까운	-5067
▁없습니다	-5068
▁억지스러운	-5069
▁겪	-5070
낸다	-5071
대단	-5072
미네	-5073
번은	-5074
보네	-5075
복을	-5076
볼만	-5077
빨리	-5078
신을	-5079
씨는	-5080
장을	-5081
절대	-5082
함의	-5083
형래	-5084
401	-5085
406	-5086
730	-5087
▁높게	-5088
▁돈을	-5089
▁배역	-5090
▁비밀	-5091
▁사고	-5092
▁심오	-5093
▁알수	-5094
겁니다	-5095
만들어	-5096
▁487	-5097
▁583	-5098
▁838	-5099
▁노래가	-5100
▁다시는	-5101
▁색다른	-5102
▁소중한	-5103
▁연출과	-5104
▁잘하고	-5105
▁지나도	-5106
▁짜임새	-5107
영화인데	-5108
▁모르겠음	-5109
▁여러가지	-5110
▁L	-5111
▁P	-5112
▁낙	-5113
▁묵	-5114
▁왤	-5115
긴장	-5116
때문	-5117
레멘	-5118
력을	-5119
만다	-5120
모두	-5121
뭐야	-5122
뭔가	-5123
빼고	-5124
세기	-5125
였어	-5126
이리	-5127
종일	-5128
451	-5129
738	-5130
▁sf	-5131
▁~~	-5132
▁상관	-5133
▁새끼	-5134
▁양심	-5135
▁웃고	-5136
웠지만	-5137
하는건	-5138
~!!!	-5139
▁360	-5140
▁525	-5141
▁856	-5142
▁858	-5143
▁가슴을	-5144
▁거기에	-5145
▁결말을	-5146
▁매력을	-5147
▁뭐하나	-5148
▁반전은	-5149
▁봅니다	-5150
▁소름이	-5151
▁속에서	-5152
▁애들은	-5153
▁어이없	-5154
▁여운을	-5155
▁이래서	-5156
생각없이	-5157
▁그저그런	-5158
▁극장가서	-5159
▁기대이상	-5160
▁답답하고	-5161
▁떨어진다	-5162
▁아닙니다	-5163
▁인상적이	-5164
▁정말이지	-5165
▁하나같이	-5166
▁재미없었다	-5167
▁ᄏᄏᄏᄏᄏᄏ	-5168
▁킬링타임용으로	-5169
▁/	-5170
▁씹	-5171
사건	-5172
생활	-5173
아쉬	-5174
좋음	-5175
허접	-5176
▁기준	-5177
▁데이	-5178
▁둘째	-5179
▁부실	-5180
▁선동	-5181
▁성격	-5182
▁스페	-5183
▁있던	-5184
▁잔혹	-5185
▁정확	-5186
▁집에	-5187
▁최민	-5188
▁치고	-5189
▁한명	-5190
다는거	-5191
레이션	-5192
솔직히	-5193
이였다	-5194
점만점	-5195
줄이야	-5196
파이어	-5197
▁647	-5198
▁752	-5199
▁784	-5200
▁나쁘지	-5201
▁느꼈다	-5202
▁또다른	-5203
▁소소한	-5204
▁아니야	-5205
▁어쩔수	-5206
▁영화화	-5207
▁예쁘고	-5208
▁최고임	-5209
▁최근에	-5210
▁흥미로	-5211
스토리도	-5212
해주세요	-5213
▁1019	-5214
▁감정이입	-5215
▁엉성하고	-5216
▁이야기는	-5217
▁주인공은	-5218
영화입니다	-5219
▁남자주인공	-5220
▁블록버스터	-5221
▁재미있습니다	-5222
▁택	-5223
▁펼	-5224
과서	-5225
나니	-5226
누나	-5227
는듯	-5228
든지	-5229
뭥미	-5230
어디	-5231
음을	-5232
잡고	-5233
장한	-5234
정한	-5235
지면	-5236
▁결코	-5237
▁길게	-5238
▁낮네	-5239
▁빠진	-5240
▁어쩜	-5241
▁연극	-5242
▁울컥	-5243
▁일깨	-5244
▁충실	-5245
보니까	-5246
봤지만	-5247
부분이	-5248
연기는	-5249
웠어요	-5250
▁584	-5251
▁697	-5252
▁845	-5253
▁911	-5254
▁구성이	-5255
▁많은데	-5256
▁연예인	-5257
▁오래된	-5258
▁이해안	-5259
▁잘어울	-5260
▁제임스	-5261
▁최고로	-5262
▁무엇인지	-5263
▁스트레스	-5264
▁막장드라마	-5265
it	-5266
구성	-5267
님은	-5268
스크	-5269
오래	-5270
이쁘	-5271
제로	-5272
308	-5273
502	-5274
536	-5275
702	-5276
▁감각	-5277
▁갖고	-5278
▁만남	-5279
▁무한	-5280
▁아래	-5281
▁열정	-5282
▁정체	-5283
▁조작	-5284
들이나	-5285
레멘타	-5286
해주고	-5287
▁517	-5288
▁942	-5289
▁데리고	-5290
▁됩니다	-5291
▁별로임	-5292
▁잼나게	-5293
▁적당히	-5294
▁본방사수	-5295
▁잘봤어요	-5296
▁최고였다	-5297
vd	-5298
▁=	-5299
▁낭	-5300
▁떨	-5301
니퍼	-5302
되면	-5303
르게	-5304
매력	-5305
아는	-5306
어리	-5307
조금	-5308
후의	-5309
▁끝났	-5310
▁놓고	-5311
▁단편	-5312
▁달리	-5313
▁생활	-5314
▁의리	-5315
▁잼잇	-5316
▁탄생	-5317
▁할수	-5318
나오고	-5319
인줄알	-5320
점대는	-5321
▁300	-5322
▁494	-5323
▁514	-5324
▁577	-5325
▁834	-5326
▁966	-5327
▁그만큼	-5328
▁느낌의	-5329
▁명작을	-5330
▁식상한	-5331
▁주기도	-5332
▁참신한	-5333
▁한국의	-5334
했었는데	-5335
▁다운받아	-5336
▁집중해서	-5337
▁크리스마스	-5338
~~~~~~~~	-5339
▁넌	-5340
▁샘	-5341
▁헬	-5342
▁홀	-5343
강호	-5344
개그	-5345
니가	-5346
싸움	-5347
아름	-5348
치가	-5349
커플	-5350
팩트	-5351
056	-5352
541	-5353
576	-5354
708	-5355
▁낮게	-5356
▁넘게	-5357
▁먼가	-5358
▁못봐	-5359
▁뭐니	-5360
▁본게	-5361
▁봐줄	-5362
▁빼면	-5363
▁손에	-5364
▁시키	-5365
▁아내	-5366
▁안된	-5367
▁안습	-5368
▁열받	-5369
▁으리	-5370
▁책을	-5371
는거야	-5372
전개가	-5373
점에서	-5374
▁160	-5375
▁735	-5376
▁908	-5377
▁935	-5378
▁그자체	-5379
▁낚였다	-5380
▁남네요	-5381
▁수많은	-5382
▁아무런	-5383
▁하는게	-5384
▁한국인	-5385
▁했으면	-5386
미네이터	-5387
없는영화	-5388
▁1016	-5389
▁몰입도가	-5390
▁살다살다	-5391
▁살아가는	-5392
▁생각했는데	-5393
▁;	-5394
▁N	-5395
▁껐	-5396
▁났	-5397
▁를	-5398
▁몬	-5399
▁웰	-5400
▁첩	-5401
♡♡	-5402
동차	-5403
로드	-5404
리면	-5405
묘한	-5406
부가	-5407
상은	-5408
서는	-5409
신의	-5410
아빠	-5411
티즌	-5412
퓨터	-5413
하군	-5414
742	-5415
758	-5416
▁담배	-5417
▁듣고	-5418
▁명화	-5419
▁뭘까	-5420
▁야한	-5421
▁조절	-5422
▁조카	-5423
▁주기	-5424
▁집착	-5425
것같은	-5426
기전에	-5427
인데도	-5428
▁492	-5429
▁764	-5430
▁976	-5431
▁다양한	-5432
▁돌아가	-5433
▁부분도	-5434
▁살면서	-5435
▁실제로	-5436
▁여주가	-5437
▁이것이	-5438
▁질리지	-5439
▁핵노잼	-5440
▁바랍니다	-5441
▁보기에는	-5442
▁볼수있는	-5443
▁봤는데도	-5444
▁시리즈중	-5445
▁연기력은	-5446
▁영화인가	-5447
▁이상하게	-5448
▁훌륭하다	-5449
▁낯	-5450
▁쥬	-5451
▁휘	-5452
국영	-5453
년작	-5454
라의	-5455
버려	-5456
분을	-5457
윤발	-5458
이에	-5459
550	-5460
552	-5461
▁가지	-5462
▁거부	-5463
▁기자	-5464
▁꽤나	-5465
▁다를	-5466
▁다이	-5467
▁본거	-5468
▁볼때	-5469
▁새로	-5470
▁시끄	-5471
▁앞뒤	-5472
▁애기	-5473
▁영향	-5474
▁자식	-5475
▁플롯	-5476
▁헤어	-5477
도대체	-5478
엇는데	-5479
했으나	-5480
▁357	-5481
▁523	-5482
▁693	-5483
▁감동은	-5484
▁거짓말	-5485
▁교훈을	-5486
▁놀라운	-5487
▁로버트	-5488
▁소설을	-5489
▁소재도	-5490
▁아류작	-5491
▁약간의	-5492
▁여자의	-5493
▁자체는	-5494
▁주제를	-5495
▁짜증만	-5496
재미없음	-5497
하는영화	-5498
▁만든영화	-5499
▁시리즈는	-5500
▁특수효과	-5501
▁마지막까지	-5502
..........	-5503
▁캬	-5504
▁튀	-5505
공감	-5506
나네	-5507
문화	-5508
싫어	-5509
치곤	-5510
448	-5511
▁be	-5512
▁끔찍	-5513
▁들고	-5514
▁사투	-5515
▁살린	-5516
▁서부	-5517
▁쓰고	-5518
▁안쓰	-5519
▁안에	-5520
▁위험	-5521
▁유아	-5522
▁읽어	-5523
▁짧은	-5524
갑니다	-5525
는영화	-5526
봤네요	-5527
속으로	-5528
자들의	-5529
하는것	-5530
▁527	-5531
▁668	-5532
▁685	-5533
▁720	-5534
▁861	-5535
▁938	-5536
▁교과서	-5537
▁나머지	-5538
▁심지어	-5539
▁않아서	-5540
▁영상이	-5541
▁웃기다	-5542
▁장면도	-5543
▁친구가	-5544
▁생각으로	-5545
▁아쉽지만	-5546
▁여자친구	-5547
▁좋겠네요	-5548
▁포스터가	-5549
▁만들었는지	-5550
▁재미도없고	-5551
▁W	-5552
▁X	-5553
개는	-5554
관객	-5555
래곤	-5556
뢰매	-5557
리며	-5558
마이	-5559
바이	-5560
스포	-5561
시오	-5562
여행	-5563
으신	-5564
정의	-5565
치노	-5566
트의	-5567
하길	-5568
혼자	-5569
009	-5570
374	-5571
509	-5572
732	-5573
▁낮지	-5574
▁따분	-5575
▁매일	-5576
▁무료	-5577
▁묻어	-5578
▁짜집	-5579
▁타고	-5580
▁혹은	-5581
으로는	-5582
이었음	-5583
▁120	-5584
▁557	-5585
▁734	-5586
▁가벼운	-5587
▁반드시	-5588
▁별로고	-5589
▁봤을까	-5590
▁역사를	-5591
▁영화와	-5592
▁원작에	-5593
▁일깨워	-5594
▁있다니	-5595
▁첫사랑	-5596
▁하다가	-5597
▁한번도	-5598
▁한편의	-5599
▁궁금하다	-5600
▁떨어지고	-5601
▁배우들은	-5602
▁시청률이	-5603
▁어느정도	-5604
▁어울리는	-5605
▁에피소드	-5606
▁영화인지	-5607
▁처음에는	-5608
-^	-5609
▁K	-5610
▁객	-5611
▁벤	-5612
같고	-5613
거든	-5614
덕화	-5615
도를	-5616
상의	-5617
선을	-5618
스키	-5619
이도	-5620
이여	-5621
적임	-5622
했지	-5623
▁가르	-5624
▁낮다	-5625
▁때려	-5626
▁받은	-5627
▁비행	-5628
▁손색	-5629
▁쓰는	-5630
▁웃겼	-5631
▁정작	-5632
▁한숨	-5633
▁호구	-5634
감독님	-5635
나와서	-5636
심으로	-5637
였으면	-5638
적이지	-5639
해지고	-5640
▁392	-5641
▁956	-5642
▁감독을	-5643
▁괜찮다	-5644
▁귀여워	-5645
▁당신은	-5646
▁러시아	-5647
▁무서워	-5648
▁스티븐	-5649
▁작가님	-5650
▁주윤발	-5651
▁특별한	-5652
▁평점조	-5653
있습니다	-5654
▁1009	-5655
▁그야말로	-5656
▁말하고자	-5657
▁아름답게	-5658
▁어설프고	-5659
▁재밌다는	-5660
▁짜증나서	-5661
▁태어나서	-5662
▁여자주인공	-5663
.1	-5664
▁틈	-5665
▁혐	-5666
가네	-5667
겠죠	-5668
대해	-5669
리나	-5670
박한	-5671
보지	-5672
상수	-5673
시면	-5674
악한	-5675
야할	-5676
여주	-5677
일을	-5678
장르	-5679
짱짱	-5680
프닝	-5681
후회	-5682
▁끼워	-5683
▁내게	-5684
▁다크	-5685
▁담겨	-5686
▁당황	-5687
▁본지	-5688
▁있네	-5689
▁첨엔	-5690
▁팬이	-5691
▁형사	-5692
기까지	-5693
았으면	-5694
애들이	-5695
했을때	-5696
▁123	-5697
▁403	-5698
▁453	-5699
▁464	-5700
▁507	-5701
▁778	-5702
▁961	-5703
▁놀랍다	-5704
▁당연히	-5705
▁많은걸	-5706
▁배우도	-5707
▁보지말	-5708
▁브루스	-5709
▁여자들	-5710
▁이딴걸	-5711
▁이상의	-5712
▁일부러	-5713
▁처음에	-5714
▁출연한	-5715
▁희망을	-5716
▁나름대로	-5717
▁쓸데없이	-5718
▁아까웠다	-5719
▁주인공들	-5720
▁해리포터	-5721
ut	-5722
▁깡	-5723
▁효	-5724
보영	-5725
신고	-5726
정우	-5727
햇다	-5728
형님	-5729
..1	-5730
372	-5731
441	-5732
▁of	-5733
▁근래	-5734
▁나랑	-5735
▁로코	-5736
▁목숨	-5737
▁미쳤	-5738
▁베드	-5739
▁수입	-5740
▁안될	-5741
▁잠시	-5742
▁주지	-5743
▁추격	-5744
▁파워	-5745
메이드	-5746
스럽지	-5747
으려고	-5748
하자는	-5749
해야지	-5750
▁133	-5751
▁323	-5752
▁534	-5753
▁593	-5754
▁708	-5755
▁948	-5756
▁그립다	-5757
▁내용과	-5758
▁모든걸	-5759
▁배트맨	-5760
▁보다니	-5761
▁소재와	-5762
▁심형래	-5763
▁엔딩이	-5764
▁영상과	-5765
▁이따구	-5766
▁이해를	-5767
▁장면을	-5768
웠습니다	-5769
▁수작이다	-5770
▁유일하게	-5771
▁이상하고	-5772
ᄏᄏᄏᄏᄏᄏ	-5773
▁10277	-5774
▁재미없어서	-5775
ᅲᅮ	-5776
▁팝	-5777
게임	-5778
또한	-5779
로의	-5780
성과	-5781
슨이	-5782
어용	-5783
인건	-5784
정화	-5785
죽는	-5786
지현	-5787
함도	-5788
309	-5789
▁빵터	-5790
▁아버	-5791
▁애매	-5792
▁이야	-5793
▁이은	-5794
▁적절	-5795
▁확인	-5796
건가요	-5797
부터가	-5798
었다는	-5799
에게는	-5800
잖아요	-5801
점으로	-5802
하고싶	-5803
?...	-5804
▁384	-5805
▁483	-5806
▁570	-5807
▁732	-5808
▁852	-5809
▁dvd	-5810
▁you	-5811
▁강렬한	-5812
▁괜찮음	-5813
▁나에겐	-5814
▁내생에	-5815
▁많아서	-5816
▁배우는	-5817
▁사람도	-5818
▁시간만	-5819
▁싸우는	-5820
▁영화만	-5821
▁이런건	-5822
▁있다고	-5823
▁제니퍼	-5824
▁중에서	-5825
▁지금의	-5826
거같아요	-5827
긴하지만	-5828
스토리가	-5829
▁다시보니	-5830
▁따뜻하고	-5831
▁배경음악	-5832
▁아니라고	-5833
▁웃으면서	-5834
!!!!!!	-5835
is	-5836
▁F	-5837
▁ᄇ	-5838
▁곧	-5839
▁댄	-5840
드리	-5841
때매	-5842
레인	-5843
리와	-5844
이름	-5845
쟁이	-5846
줬다	-5847
직한	-5848
558	-5849
▁감안	-5850
▁극단	-5851
▁꼬마	-5852
▁무너	-5853
▁보던	-5854
▁봤네	-5855
▁부르	-5856
▁빵빵	-5857
▁실력	-5858
▁애국	-5859
▁언젠	-5860
▁자세	-5861
▁정우	-5862
▁착각	-5863
▁폐지	-5864
▁하아	-5865
같아요	-5866
면에서	-5867
뿐이다	-5868
아저씨	-5869
어야지	-5870
었구나	-5871
화이팅	-5872
▁480	-5873
▁505	-5874
▁543	-5875
▁555	-5876
▁876	-5877
▁너무도	-5878
▁머리가	-5879
▁새벽에	-5880
▁생각할	-5881
▁아깝고	-5882
▁엄마가	-5883
▁울리는	-5884
▁유일한	-5885
▁이소룡	-5886
▁잘하는	-5887
▁주제가	-5888
▁하길래	-5889
▁흐르는	-5890
영화보다	-5891
▁돋보이는	-5892
▁아쉬움이	-5893
▁재밋어요	-5894
▁재밌어서	-5895
▁케이블에서	-5896
le	-5897
느껴	-5898
미는	-5899
부로	-5900
선생	-5901
아치	-5902
있을	-5903
졸작	-5904
중이	-5905
추억	-5906
376	-5907
531	-5908
756	-5909
▁강한	-5910
▁고맙	-5911
▁김혜	-5912
▁난잡	-5913
▁동양	-5914
▁맞춰	-5915
▁별반	-5916
▁신의	-5917
▁싶지	-5918
▁아냐	-5919
▁어째	-5920
▁위대	-5921
▁하여	-5922
▁화장	-5923
관에서	-5924
만하다	-5925
있네요	-5926
좋았다	-5927
최악의	-5928
포스터	-5929
하나도	-5930
▁445	-5931
▁500	-5932
▁634	-5933
▁762	-5934
▁ᄍᄍᄍ	-5935
▁공포물	-5936
▁그것도	-5937
▁나네요	-5938
▁대통령	-5939
▁두번째	-5940
▁몰랐다	-5941
▁반전을	-5942
▁생각도	-5943
▁숨겨진	-5944
▁실화를	-5945
▁싶어요	-5946
▁없었음	-5947
▁영환데	-5948
▁예쁘다	-5949
▁잘못된	-5950
▁점수는	-5951
▁제목만	-5952
▁조니뎁	-5953
▁진짜로	-5954
▁초딩때	-5955
▁하나로	-5956
▁할리우드	-5957
▁아까운영화	-5958
▁최고의영화	-5959
▁늑	-5960
▁덤	-5961
나의	-5962
드만	-5963
민이	-5964
뻐요	-5965
언제	-5966
오브	-5967
전을	-5968
차별	-5969
하러	-5970
506	-5971
734	-5972
▁과학	-5973
▁남기	-5974
▁다섯	-5975
▁디워	-5976
▁마약	-5977
▁망친	-5978
▁바다	-5979
▁싸움	-5980
▁예능	-5981
▁재능	-5982
▁흑인	-5983
라이언	-5984
으로만	-5985
재미도	-5986
▁190	-5987
▁657	-5988
▁722	-5989
▁871	-5990
▁991	-5991
▁감동받	-5992
▁개노잼	-5993
▁단순히	-5994
▁못하다	-5995
▁보기에	-5996
▁부모님	-5997
▁불편한	-5998
▁여러번	-5999
▁여자는	-6000
▁연출은	-6001
▁일본의	-6002
▁잊혀지	-6003
▁줍니다	-6004
▁집중이	-6005
시나리오	-6006
하지않고	-6007
▁마음으로	-6008
▁매력적이	-6009
▁아이들과	-6010
▁어색하고	-6011
▁언제봐도	-6012
▁이드라마	-6013
▁클레멘타	-6014
▁한국에서	-6015
▁이런영화는	-6016
as	-6017
▁>	-6018
▁염	-6019
▁컬	-6020
랜드	-6021
버릴	-6022
분위	-6023
였네	-6024
웃김	-6025
으리	-6026
이프	-6027
일듯	-6028
일의	-6029
잡을	-6030
졌음	-6031
중반	-6032
테러	-6033
팔이	-6034
▁같고	-6035
▁두려	-6036
▁땜에	-6037
▁로빈	-6038
▁배급	-6039
▁빠른	-6040
▁사용	-6041
▁서양	-6042
▁실험	-6043
▁없게	-6044
▁오브	-6045
▁외로	-6046
▁이병	-6047
▁익숙	-6048
▁잤다	-6049
▁저급	-6050
▁중독	-6051
▁클래	-6052
▁편안	-6053
생각이	-6054
어가는	-6055
점주고	-6056
▁303	-6057
▁530	-6058
▁603	-6059
▁662	-6060
▁687	-6061
▁898	-6062
▁갑니다	-6063
▁다르게	-6064
▁떨어짐	-6065
▁멋있는	-6066
▁멋지고	-6067
▁봤다면	-6068
▁아니지	-6069
▁아들이	-6070
▁안봐도	-6071
▁없나요	-6072
▁인생에	-6073
▁재미로	-6074
▁재밋음	-6075
▁잼있음	-6076
▁짜증남	-6077
▁컴퓨터	-6078
▁혹시나	-6079
▁후속작	-6080
▁희대의	-6081
재미있게	-6082
...^^	-6083
▁마이너스	-6084
▁이해할수	-6085
▁모르겠네요	-6086
▁터미네이터	-6087
▁곽	-6088
▁든	-6089
▁떼	-6090
▁링	-6091
가면	-6092
느끼	-6093
미국	-6094
보내	-6095
부는	-6096
어지	-6097
은거	-6098
자로	-6099
자와	-6100
전이	-6101
주면	-6102
줄은	-6103
판이	-6104
히고	-6105
409	-6106
559	-6107
736	-6108
748	-6109
▁개념	-6110
▁낮아	-6111
▁따위	-6112
▁망한	-6113
▁배신	-6114
▁선물	-6115
▁아놀	-6116
▁유발	-6117
▁정보	-6118
▁판단	-6119
는거지	-6120
는데도	-6121
라는게	-6122
었다고	-6123
하거나	-6124
하더라	-6125
▁343	-6126
▁444	-6127
▁497	-6128
▁763	-6129
▁866	-6130
▁그동안	-6131
▁나왔다	-6132
▁높아서	-6133
▁다르다	-6134
▁안간다	-6135
▁이보다	-6136
▁이뻐서	-6137
▁이토록	-6138
▁일본은	-6139
▁저평가	-6140
▁좋다고	-6141
▁최고봉	-6142
▁현실이	-6143
▁기억나는	-6144
▁봐도봐도	-6145
▁시간아깝다	-6146
▁ᄏᄏᄏᄏᄏᄏᄏ	-6147
!!!!!!!!!!!!!!!!	-6148
▁R	-6149
▁숙	-6150
▁옹	-6151
▁쭉	-6152
간에	-6153
같아	-6154
개가	-6155
기법	-6156
놨네	-6157
드림	-6158
모로	-6159
미스	-6160
볼수	-6161
불허	-6162
살아	-6163
살인	-6164
스케	-6165
식은	-6166
안됨	-6167
어색	-6168
조연	-6169
희가	-6170
446	-6171
731	-6172
739	-6173
▁가고	-6174
▁개성	-6175
▁두근	-6176
▁망치	-6177
▁생긴	-6178
▁소피	-6179
▁자랑	-6180
▁진리	-6181
내용은	-6182
모르고	-6183
보이는	-6184
분만에	-6185
있었다	-6186
ovie	-6187
▁327	-6188
▁380	-6189
▁682	-6190
▁952	-6191
▁969	-6192
▁네티즌	-6193
▁도무지	-6194
▁매니아	-6195
▁사운드	-6196
▁시간에	-6197
▁알겠다	-6198
▁전쟁의	-6199
도아니고	-6200
▁2000	-6201
▁괜찮았다	-6202
▁궁금해서	-6203
▁마지막이	-6204
▁영상미가	-6205
▁영화라니	-6206
▁영화자체	-6207
▁짜증나고	-6208
▁여주인공이	-6209
▁작품입니다	-6210
▁갓	-6211
▁땡	-6212
▁뭣	-6213
▁헌	-6214
▁혁	-6215
보긴	-6216
사와	-6217
성기	-6218
싫다	-6219
엄청	-6220
웠고	-6221
즈의	-6222
진이	-6223
티노	-6224
하균	-6225
370	-6226
▁거북	-6227
▁겉멋	-6228
▁그들	-6229
▁기타	-6230
▁대신	-6231
▁루즈	-6232
▁말자	-6233
▁망가	-6234
▁반담	-6235
▁본듯	-6236
▁스텝	-6237
▁왤케	-6238
▁인형	-6239
▁잊고	-6240
▁잠이	-6241
▁즐겨	-6242
▁탈출	-6243
▁폭발	-6244
▁폭풍	-6245
▁프레	-6246
▁하시	-6247
▁하품	-6248
▁한방	-6249
▁형님	-6250
▁흑백	-6251
납니다	-6252
배우의	-6253
왔는데	-6254
▁535	-6255
▁600	-6256
▁643	-6257
▁684	-6258
▁714	-6259
▁889	-6260
▁느낌은	-6261
▁만화책	-6262
▁뭐하는	-6263
▁사실을	-6264
▁어른이	-6265
▁어우러	-6266
▁재개봉	-6267
▁주고싶	-6268
▁지겹다	-6269
▁짜증이	-6270
하지마라	-6271
▁ᄒᄒᄒᄒ	-6272
▁뱀파이어	-6273
▁불쌍하다	-6274
▁괜찮았는데	-6275
▁재미없다고	-6276
▁한국영화의	-6277
▁걱	-6278
▁뽀	-6279
▁엔	-6280
귀여	-6281
까요	-6282
높은	-6283
딩때	-6284
마자	-6285
말도	-6286
빠진	-6287
사에	-6288
서도	-6289
성우	-6290
세여	-6291
시원	-6292
아내	-6293
엇음	-6294
점수	-6295
지나	-6296
하디	-6297
709	-6298
759	-6299
▁각색	-6300
▁관련	-6301
▁극복	-6302
▁꿈꾸	-6303
▁끌고	-6304
▁남편	-6305
▁달려	-6306
▁맛이	-6307
▁맞아	-6308
▁뭥미	-6309
▁밀려	-6310
▁빛을	-6311
▁사상	-6312
▁아우	-6313
▁압도	-6314
▁열연	-6315
▁이성	-6316
▁이수	-6317
▁좋네	-6318
▁컨셉	-6319
▁평소	-6320
▁했음	-6321
▁환경	-6322
거같음	-6323
게하는	-6324
스러워	-6325
어버린	-6326
정적인	-6327
햇는데	-6328
▁320	-6329
▁398	-6330
▁435	-6331
▁467	-6332
▁630	-6333
▁640	-6334
▁848	-6335
▁가족이	-6336
▁결론은	-6337
▁되네요	-6338
▁분들이	-6339
▁사이코	-6340
▁스릴도	-6341
▁액션을	-6342
▁얼굴이	-6343
▁인간은	-6344
▁적어도	-6345
▁케릭터	-6346
▁한다는	-6347
▁현실과	-6348
♥♥♥♥	-6349
같은영화	-6350
극장에서	-6351
기도하고	-6352
▁Good	-6353
▁기대없이	-6354
▁나레이션	-6355
▁소중함을	-6356
▁영화였음	-6357
▁잔잔하게	-6358
▁시나리오가	-6359
▁굴	-6360
▁땅	-6361
▁벨	-6362
가리	-6363
가에	-6364
못해	-6365
물로	-6366
았네	-6367
어의	-6368
였나	-6369
웃기	-6370
장의	-6371
해선	-6372
형제	-6373
556	-6374
741	-6375
▁달콤	-6376
▁로드	-6377
▁만약	-6378
▁멋지	-6379
▁못미	-6380
▁무겁	-6381
▁무게	-6382
▁박수	-6383
▁받고	-6384
▁부담	-6385
▁유행	-6386
▁자본	-6387
▁집어	-6388
▁추리	-6389
▁파괴	-6390
▁평균	-6391
분들이	-6392
인지도	-6393
제대로	-6394
▁198	-6395
▁335	-6396
▁417	-6397
▁485	-6398
▁567	-6399
▁751	-6400
▁769	-6401
▁808	-6402
▁고양이	-6403
▁공짜로	-6404
▁다보고	-6405
▁명복을	-6406
▁명불허	-6407
▁명작은	-6408
▁본건데	-6409
▁봐야지	-6410
▁사랑해	-6411
▁없는게	-6412
▁영화이	-6413
▁오프닝	-6414
▁왜이러	-6415
▁우뢰매	-6416
▁정도면	-6417
▁좋을듯	-6418
▁내용인지	-6419
▁리얼리티	-6420
▁만들어서	-6421
▁목소리가	-6422
▁무엇인가	-6423
▁믿고보는	-6424
▁쓸데없는	-6425
▁않았지만	-6426
▁오랫만에	-6427
▁유쾌하게	-6428
▁자극적인	-6429
쓰레기영화	-6430
CG	-6431
▁꿀	-6432
▁붕	-6433
▁쫓	-6434
▁콘	-6435
갈때	-6436
라노	-6437
라에	-6438
무시	-6439
버스	-6440
부의	-6441
불쌍	-6442
시가	-6443
인게	-6444
졌던	-6445
▁거품	-6446
▁과대	-6447
▁김지	-6448
▁김치	-6449
▁늦게	-6450
▁담백	-6451
▁답이	-6452
▁삶이	-6453
▁서울	-6454
▁어떨	-6455
▁원조	-6456
▁유럽	-6457
▁이렇	-6458
▁이준	-6459
▁장동	-6460
▁죽고	-6461
▁지겹	-6462
▁호기	-6463
▁흡입	-6464
감독은	-6465
들끼리	-6466
란티노	-6467
빕니다	-6468
아무리	-6469
적으론	-6470
한마디	-6471
할만한	-6472
▁164	-6473
▁290	-6474
▁588	-6475
▁688	-6476
▁728	-6477
▁742	-6478
▁959	-6479
▁989	-6480
▁내생애	-6481
▁동시에	-6482
▁매력에	-6483
▁못봐주	-6484
▁살인마	-6485
▁안어울	-6486
▁없다고	-6487
▁이름이	-6488
▁인생이	-6489
▁인터넷	-6490
▁잊을수	-6491
▁자동차	-6492
▁장국영	-6493
▁제이슨	-6494
▁짜집기	-6495
▁보았는데	-6496
▁볼만했다	-6497
▁사랑해요	-6498
▁장난하냐	-6499
▁재미있는데	-6500
...........	-6501
ck	-6502
ow	-6503
▁곰	-6504
대고	-6505
도의	-6506
들여	-6507
따뜻	-6508
받을	-6509
범죄	-6510
비슷	-6511
상영	-6512
소름	-6513
위에	-6514
장애	-6515
저리	-6516
주기	-6517
준호	-6518
752	-6519
▁:)	-6520
▁마무	-6521
▁맞지	-6522
▁매미	-6523
▁뭐고	-6524
▁반대	-6525
▁보내	-6526
▁생에	-6527
▁아파	-6528
▁없냐	-6529
▁역량	-6530
▁왜곡	-6531
▁일베	-6532
▁줄리	-6533
▁짐캐	-6534
▁책임	-6535
▁최소	-6536
▁케빈	-6537
▁파격	-6538
▁흔들	-6539
▁힘내	-6540
까지도	-6541
나네요	-6542
분동안	-6543
여운이	-6544
연기를	-6545
인들의	-6546
임에도	-6547
있지만	-6548
점부터	-6549
중에서	-6550
▁113	-6551
▁187	-6552
▁233	-6553
▁260	-6554
▁365	-6555
▁400	-6556
▁434	-6557
▁644	-6558
▁645	-6559
▁가까운	-6560
▁가득한	-6561
▁귀엽다	-6562
▁그것을	-6563
▁내용의	-6564
▁다세포	-6565
▁당시에	-6566
▁돈내고	-6567
▁명장면	-6568
▁무섭고	-6569
▁미국의	-6570
▁불쌍한	-6571
▁소재의	-6572
▁액션과	-6573
▁어렵다	-6574
▁없으면	-6575
▁영화야	-6576
▁전개와	-6577
▁느낌이다	-6578
▁봐야하는	-6579
▁아깝네요	-6580
▁탄탄하고	-6581
▁포스터만	-6582
개인적으로	-6583
▁전반적으로	-6584
▁좋았을텐데	-6585
.2	-6586
od	-6587
▁널	-6588
▁띄	-6589
▁품	-6590
간히	-6591
께요	-6592
낮은	-6593
데체	-6594
리엄	-6595
바람	-6596
스맨	-6597
스에	-6598
스와	-6599
없나	-6600
위원	-6601
있던	-6602
있지	-6603
자면	-6604
존나	-6605
중훈	-6606
378	-6607
501	-6608
▁갖다	-6609
▁객관	-6610
▁기존	-6611
▁깡패	-6612
▁냄새	-6613
▁민폐	-6614
▁벗어	-6615
▁부탁	-6616
▁불안	-6617
▁브래	-6618
▁어둡	-6619
▁어리	-6620
▁죄송	-6621
▁찍고	-6622
▁프리	-6623
▁하며	-6624
그러나	-6625
봐야지	-6626
아닌가	-6627
았네요	-6628
을까요	-6629
졌어요	-6630
,.,.	-6631
▁297	-6632
▁353	-6633
▁454	-6634
▁484	-6635
▁772	-6636
▁801	-6637
▁971	-6638
▁가능한	-6639
▁가족의	-6640
▁그것이	-6641
▁끝날때	-6642
▁나이가	-6643
▁듭니다	-6644
▁때마다	-6645
▁떨어지	-6646
▁배경이	-6647
▁볼려고	-6648
▁불가능	-6649
▁세상이	-6650
▁시대에	-6651
▁시대의	-6652
▁아진짜	-6653
▁양아치	-6654
▁어쩌면	-6655
▁은근히	-6656
▁자기가	-6657
▁제목을	-6658
▁친구랑	-6659
▁한개도	-6660
▁허술한	-6661
▁2012	-6662
▁갠적으로	-6663
▁드라마의	-6664
▁영화예요	-6665
▁이런류의	-6666
▁초등학교	-6667
▁사람들에게	-6668
▁사람이라면	-6669
▁아무생각없이	-6670
ᅲᅲᅲᅲᅲᅲᅲᅲ	-6671
▁V	-6672
▁맴	-6673
▁웅	-6674
▁쫄	-6675
▁킹	-6676
▁협	-6677
구가	-6678
그럼	-6679
나름	-6680
늦게	-6681
더맨	-6682
둥이	-6683
들러	-6684
들로	-6685
래도	-6686
법한	-6687
웨이	-6688
위한	-6689
유리	-6690
이요	-6691
쥬얼	-6692
질않	-6693
코믹	-6694
할지	-6695
▁강간	-6696
▁것에	-6697
▁공간	-6698
▁길이	-6699
▁김태	-6700
▁김희	-6701
▁꼭보	-6702
▁나무	-6703
▁다신	-6704
▁담은	-6705
▁동네	-6706
▁매끄	-6707
▁바탕	-6708
▁받는	-6709
▁빵점	-6710
▁승리	-6711
▁안들	-6712
▁암걸	-6713
▁이동	-6714
▁읽고	-6715
▁조화	-6716
▁즐길	-6717
▁천국	-6718
▁첩보	-6719
▁콜린	-6720
▁탁월	-6721
까지만	-6722
되는데	-6723
들한테	-6724
습니까	-6725
지루함	-6726
프리오	-6727
~~^^	-6728
▁325	-6729
▁355	-6730
▁362	-6731
▁383	-6732
▁463	-6733
▁554	-6734
▁881	-6735
▁921	-6736
▁공감도	-6737
▁공감할	-6738
▁내용에	-6739
▁메세지	-6740
▁보시면	-6741
▁빕니다	-6742
▁설정이	-6743
▁스포츠	-6744
▁시청자	-6745
▁싶었다	-6746
▁안무서	-6747
▁역겨운	-6748
▁왠만한	-6749
▁점수준	-6750
▁정도가	-6751
▁최소한	-6752
▁피해자	-6753
▁헛웃음	-6754
드라마가	-6755
▁100%	-6756
▁1006	-6757
▁나오는데	-6758
▁만들었나	-6759
▁생각난다	-6760
▁시작부터	-6761
▁이것보단	-6762
▁추천하고	-6763
▁블랙코미디	-6764
▁사랑합니다	-6765
▁하나하나가	-6766
nd	-6767
▁깍	-6768
▁는	-6769
▁옳	-6770
▁탓	-6771
광고	-6772
구의	-6773
남기	-6774
노답	-6775
더더	-6776
먹은	-6777
뭐냐	-6778
번에	-6779
보구	-6780
슨의	-6781
앗다	-6782
우의	-6783
의를	-6784
좋게	-6785
주일	-6786
짬뽕	-6787
킬링	-6788
함께	-6789
375	-6790
379	-6791
706	-6792
▁가정	-6793
▁개나	-6794
▁개똥	-6795
▁고뇌	-6796
▁고독	-6797
▁내돈	-6798
▁단어	-6799
▁담긴	-6800
▁독일	-6801
▁만난	-6802
▁무난	-6803
▁버려	-6804
▁상징	-6805
▁세번	-6806
▁소화	-6807
▁여친	-6808
▁요새	-6809
▁우연	-6810
▁일으	-6811
▁정상	-6812
▁진한	-6813
▁참나	-6814
▁허허	-6815
▁혐오	-6816
레이드	-6817
리스트	-6818
했다면	-6819
~~!!	-6820
▁114	-6821
▁210	-6822
▁393	-6823
▁397	-6824
▁447	-6825
▁465	-6826
▁482	-6827
▁819	-6828
▁931	-6829
▁가슴아	-6830
▁감독도	-6831
▁교훈도	-6832
▁버리고	-6833
▁빠지는	-6834
▁알았음	-6835
▁어두운	-6836
▁영원한	-6837
▁영화나	-6838
▁울면서	-6839
▁인생은	-6840
▁작가의	-6841
▁적절한	-6842
▁찾아서	-6843
▁첨부터	-6844
공포영화	-6845
으면서도	-6846
지않는다	-6847
▁다시보고	-6848
▁뜬금없는	-6849
▁마지막회	-6850
▁명불허전	-6851
▁아니었다	-6852
▁안보는게	-6853
▁억지감동	-6854
▁유치해서	-6855
▁이해불가	-6856
▁포스터에	-6857
▁할아버지	-6858
재미있어요	-6859
▁볼만합니다	-6860
ᄏᄏᄏᄏᄏᄏᄏ	-6861
es	-6862
zz	-6863
▁뗄	-6864
▁액	-6865
▁쿵	-6866
★☆	-6867
가를	-6868
가운	-6869
감과	-6870
그랬	-6871
기와	-6872
되나	-6873
뚱맞	-6874
로로	-6875
모를	-6876
므로	-6877
민의	-6878
빠져	-6879
사실	-6880
살이	-6881
승전	-6882
시나	-6883
쓰는	-6884
안타	-6885
없지	-6886
자리	-6887
초에	-6888
타고	-6889
탈출	-6890
할뿐	-6891
306	-6892
751	-6893
▁건가	-6894
▁기회	-6895
▁데뷔	-6896
▁몇년	-6897
▁몽환	-6898
▁사무	-6899
▁언니	-6900
▁예수	-6901
▁오우	-6902
▁인종	-6903
▁절망	-6904
▁즐기	-6905
▁키스	-6906
▁할때	-6907
거리가	-6908
겠다고	-6909
그렇게	-6910
다니는	-6911
아니면	-6912
주기도	-6913
하니까	-6914
▁292	-6915
▁394	-6916
▁455	-6917
▁520	-6918
▁635	-6919
▁844	-6920
▁ᄒᄃᄃ	-6921
▁감독과	-6922
▁드네요	-6923
▁라스트	-6924
▁류승범	-6925
▁반전에	-6926
▁빛나는	-6927
▁시간때	-6928
▁싶었던	-6929
▁아깝네	-6930
▁아무도	-6931
▁않은데	-6932
▁의도가	-6933
▁제시카	-6934
▁조금은	-6935
▁한국판	-6936
▁홍상수	-6937
카프리오	-6938
▁괜찮았음	-6939
▁드라마에	-6940
▁마지막엔	-6941
▁만들어낸	-6942
▁못보겠다	-6943
▁사랑하고	-6944
▁웰메이드	-6945
▁이도저도	-6946
▁전체적인	-6947
▁다시보고싶	-6948
ot	-6949
~♥	-6950
▁ᄡ	-6951
▁곱	-6952
▁님	-6953
▁린	-6954
▁삽	-6955
가장	-6956
고생	-6957
꺼면	-6958
나쁜	-6959
났음	-6960
라라	-6961
롭고	-6962
림이	-6963
만도	-6964
무엇	-6965
번을	-6966
워즈	-6967
원은	-6968
잇는	-6969
잖은	-6970
전의	-6971
진않	-6972
질질	-6973
치의	-6974
패스	-6975
프레	-6976
후에	-6977
701	-6978
746	-6979
▁8.	-6980
▁th	-6981
▁깨알	-6982
▁녹아	-6983
▁담담	-6984
▁메이	-6985
▁밤에	-6986
▁보단	-6987
▁빨갱	-6988
▁수면	-6989
▁쓸쓸	-6990
▁아담	-6991
▁앞에	-6992
▁엑소	-6993
▁잠들	-6994
▁장진	-6995
▁짜릿	-6996
▁트랜	-6997
간만에	-6998
기억이	-6999
답니다	-7000
라이즈	-7001
리네요	-7002
못하는	-7003
발연기	-7004
생각을	-7005
신분들	-7006
애들은	-7007
점이상	-7008
파치노	-7009
할수가	-7010
▁124	-7011
▁165	-7012
▁390	-7013
▁425	-7014
▁477	-7015
▁493	-7016
▁503	-7017
▁513	-7018
▁564	-7019
▁902	-7020
▁939	-7021
▁개봉한	-7022
▁공포를	-7023
▁괜찮게	-7024
▁괜찮고	-7025
▁기대했	-7026
▁나오네	-7027
▁나을듯	-7028
▁되는데	-7029
▁드디어	-7030
▁선생님	-7031
▁아프다	-7032
▁영화같	-7033
▁외계인	-7034
▁요즘은	-7035
▁이름을	-7036
▁포인트	-7037
▁황당한	-7038
▁그렇지만	-7039
▁다행이다	-7040
▁모르지만	-7041
▁배경으로	-7042
▁인상적인	-7043
▁있었으면	-7044
▁장면들이	-7045
▁재미있었음	-7046
▁재미있었습니다	-7047
TV	-7048
▁&	-7049
▁밖	-7050
▁빙	-7051
▁죠	-7052
▁쪼	-7053
굿굿	-7054
귀엽	-7055
꺼야	-7056
되게	-7057
뭐지	-7058
박죽	-7059
분한	-7060
선택	-7061
아노	-7062
오랜	-7063
왕국	-7064
웃겨	-7065
이딴	-7066
전혀	-7067
조현	-7068
찬란	-7069
체적	-7070
치를	-7071
트를	-7072
편집	-7073
희의	-7074
..!	-7075
302	-7076
341	-7077
▁,,	-7078
▁--	-7079
▁7.	-7080
▁깊게	-7081
▁끝도	-7082
▁다녀	-7083
▁먹는	-7084
▁뭐임	-7085
▁반영	-7086
▁배꼽	-7087
▁보려	-7088
▁빼곤	-7089
▁선사	-7090
▁쏟아	-7091
▁음식	-7092
▁자고	-7093
▁점이	-7094
▁정당	-7095
▁창피	-7096
▁피터	-7097
라고요	-7098
아직도	-7099
야한다	-7100
죽박죽	-7101
코메디	-7102
평론가	-7103
하고는	-7104
ᄒᄒᄒᄒ	-7105
▁305	-7106
▁307	-7107
▁407	-7108
▁460	-7109
▁504	-7110
▁574	-7111
▁658	-7112
▁740	-7113
▁748	-7114
▁806	-7115
▁끝나서	-7116
▁놀랐다	-7117
▁드래곤	-7118
▁박중훈	-7119
▁보게된	-7120
▁보라고	-7121
▁보았던	-7122
▁빠져서	-7123
▁설득력	-7124
▁영상도	-7125
▁요소가	-7126
▁이병헌	-7127
▁이제는	-7128
▁정도는	-7129
▁풋풋한	-7130
▁화장실	-7131
시간동안	-7132
▁사람들을	-7133
▁아이디어	-7134
▁재밌었던	-7135
▁진지하게	-7136
▁캐릭터들이	-7137
▁드라마입니다	-7138
▁땀	-7139
▁뚝	-7140
▁앵	-7141
▁엮	-7142
▁칠	-7143
감사	-7144
것에	-7145
곳에	-7146
든가	-7147
로맨	-7148
만족	-7149
맘에	-7150
못한	-7151
비해	-7152
선이	-7153
여진	-7154
울뿐	-7155
으러	-7156
이든	-7157
점에	-7158
지부	-7159
쯧쯧	-7160
?..	-7161
▁개콘	-7162
▁고어	-7163
▁공중	-7164
▁끝에	-7165
▁드라	-7166
▁리즈	-7167
▁변화	-7168
▁보라	-7169
▁분량	-7170
▁삭제	-7171
▁암울	-7172
▁어쨌	-7173
▁요리	-7174
▁절제	-7175
겠는데	-7176
맙시다	-7177
없어요	-7178
재밌어	-7179
적이라	-7180
좋네요	-7181
줬으면	-7182
크레딧	-7183
▁157	-7184
▁207	-7185
▁298	-7186
▁333	-7187
▁385	-7188
▁450	-7189
▁462	-7190
▁565	-7191
▁783	-7192
▁986	-7193
▁;;;	-7194
▁EBS	-7195
▁것들이	-7196
▁귀여움	-7197
▁그들이	-7198
▁기대가	-7199
▁나올때	-7200
▁동영상	-7201
▁무거운	-7202
▁아이언	-7203
▁알았네	-7204
▁어거지	-7205
▁여러분	-7206
▁영화속	-7207
▁웃기는	-7208
▁하이틴	-7209
▁하정우	-7210
거같은데	-7211
있는영화	-7212
좋은영화	-7213
▁뜬금없이	-7214
▁소장하고	-7215
▁최고네요	-7216
▁캐릭터를	-7217
▁.....	-7218
▁생각해보게	-7219
▁감동적이네요	-7220
▁H	-7221
▁x	-7222
▁및	-7223
▁쌩	-7224
경이	-7225
끝나	-7226
다르	-7227
다만	-7228
도로	-7229
마나	-7230
물론	-7231
물의	-7232
수선	-7233
아누	-7234
아오	-7235
없게	-7236
없을	-7237
에다	-7238
역할	-7239
위가	-7240
질이	-7241
치도	-7242
하루	-7243
호감	-7244
^-^	-7245
^^*	-7246
ᅮᅮᅮ	-7247
▁가히	-7248
▁강동	-7249
▁던져	-7250
▁도둑	-7251
▁뒤에	-7252
▁망할	-7253
▁머릿	-7254
▁무간	-7255
▁버린	-7256
▁베리	-7257
▁생겼	-7258
▁숨은	-7259
▁안가	-7260
▁예측	-7261
▁오는	-7262
▁이쁨	-7263
▁전화	-7264
▁절로	-7265
▁질리	-7266
▁치유	-7267
▁평화	-7268
▁하도	-7269
▁형제	-7270
▁후에	-7271
덩어리	-7272
시대에	-7273
을수가	-7274
하시고	-7275
한테는	-7276
했을까	-7277
▁220	-7278
▁344	-7279
▁377	-7280
▁395	-7281
▁512	-7282
▁592	-7283
▁832	-7284
▁851	-7285
▁ᄃᄃᄃ	-7286
▁들어가	-7287
▁라이언	-7288
▁만점에	-7289
▁말고는	-7290
▁메시지	-7291
▁모른다	-7292
▁모습은	-7293
▁보기가	-7294
▁송강호	-7295
▁신하균	-7296
▁않았던	-7297
▁임팩트	-7298
▁잊지못	-7299
▁찾아볼	-7300
▁첨이다	-7301
▁했더니	-7302
▁허무한	-7303
점만점에	-7304
지루하고	-7305
지마세요	-7306
~~~~~	-7307
▁거지같은	-7308
▁둘째치고	-7309
▁말그대로	-7310
▁순수하고	-7311
▁시작해서	-7312
▁언제까지	-7313
▁연기하는	-7314
▁오글오글	-7315
▁짜증나게	-7316
▁만들었을까	-7317
.-	-7318
al	-7319
ed	-7320
ic	-7321
▁J	-7322
▁r	-7323
▁u	-7324
▁년	-7325
▁찢	-7326
가가	-7327
겠어	-7328
내지	-7329
데미	-7330
루토	-7331
르소	-7332
말을	-7333
살때	-7334
상에	-7335
석규	-7336
셔야	-7337
스톤	-7338
시의	-7339
였지	-7340
우스	-7341
원을	-7342
증이	-7343
참고	-7344
트로	-7345
행복	-7346
힘들	-7347
346	-7348
356	-7349
551	-7350
▁걱정	-7351
▁것만	-7352
▁글을	-7353
▁기괴	-7354
▁놀란	-7355
▁따름	-7356
▁맡은	-7357
▁못본	-7358
▁뭐여	-7359
▁뮤직	-7360
▁밑도	-7361
▁부활	-7362
▁소개	-7363
▁어떠	-7364
▁에효	-7365
▁워낙	-7366
▁이종	-7367
▁잃은	-7368
▁임창	-7369
▁잠을	-7370
▁줘야	-7371
▁칭찬	-7372
▁풍자	-7373
▁혼란	-7374
▁황정	-7375
▁힘을	-7376
년대에	-7377
시간을	-7378
점이나	-7379
졌으면	-7380
종일관	-7381
최고다	-7382
하기는	-7383
▁324	-7384
▁387	-7385
▁746	-7386
▁760	-7387
▁같았다	-7388
▁개그맨	-7389
▁것인가	-7390
▁낫겠다	-7391
▁마시길	-7392
▁멋지게	-7393
▁명대사	-7394
▁뭐라고	-7395
▁부자연	-7396
▁시도는	-7397
▁싶어서	-7398
▁안본다	-7399
▁어디로	-7400
▁있었고	-7401
▁진지한	-7402
▁표현할	-7403
▁하다니	-7404
▁한번더	-7405
▁한순간	-7406
내용인지	-7407
▁감명깊게	-7408
▁개봉당시	-7409
▁꼭보세요	-7410
▁드라마다	-7411
▁시리즈의	-7412
▁아버지의	-7413
▁어설프다	-7414
▁엄청나게	-7415
▁연출력이	-7416
▁이영화의	-7417
▁홍콩영화	-7418
▁좋겠습니다	-7419
▁최악의영화	-7420
▁재미있었는데	-7421
BC	-7422
▁땐	-7423
▁습	-7424
▁핑	-7425
▁햇	-7426
감정	-7427
결국	-7428
드워	-7429
럽지	-7430
먹을	-7431
발이	-7432
분도	-7433
성한	-7434
시기	-7435
신도	-7436
씨도	-7437
예진	-7438
인에	-7439
잔인	-7440
주지	-7441
중국	-7442
케이	-7443
!!♥	-7444
351	-7445
▁격투	-7446
▁괜찬	-7447
▁끝을	-7448
▁넘넘	-7449
▁리암	-7450
▁말투	-7451
▁몰라	-7452
▁박신	-7453
▁부산	-7454
▁불과	-7455
▁소통	-7456
▁신고	-7457
▁심장	-7458
▁우디	-7459
▁이다	-7460
▁이별	-7461
▁이승	-7462
▁줄수	-7463
▁찾는	-7464
▁축구	-7465
▁향연	-7466
같아서	-7467
매이션	-7468
재밋게	-7469
지않다	-7470
크루즈	-7471
▁143	-7472
▁163	-7473
▁364	-7474
▁404	-7475
▁575	-7476
▁638	-7477
▁756	-7478
▁891	-7479
▁공포가	-7480
▁그리워	-7481
▁깔끔한	-7482
▁당신이	-7483
▁더빙이	-7484
▁말아야	-7485
▁보게되	-7486
▁수준을	-7487
▁스타뎀	-7488
▁아만다	-7489
▁역사에	-7490
▁영화일	-7491
▁왕조현	-7492
▁있으나	-7493
▁전개는	-7494
▁중학생	-7495
것같네요	-7496
주인공이	-7497
▁귀여워요	-7498
▁긴장감을	-7499
▁독특하고	-7500
▁배우들을	-7501
▁아이들의	-7502
▁어이없음	-7503
▁에로영화	-7504
▁연기력에	-7505
▁영화인줄	-7506
▁재미있을	-7507
▁전쟁영화	-7508
▁최고라고	-7509
▁최고최고	-7510
▁캐릭터도	-7511
▁다운받아서	-7512
▁디카프리오	-7513
▁마지막장면	-7514
▁소름끼치는	-7515
▁코미디영화	-7516
▁재밌게봤어요	-7517
????????	-7518
,3	-7519
.!	-7520
am	-7521
ay	-7522
ig	-7523
▁닿	-7524
▁듬	-7525
▁섭	-7526
▁앨	-7527
▁을	-7528
▁폰	-7529
가의	-7530
경찰	-7531
구라	-7532
나간	-7533
녀석	-7534
답게	-7535
덕에	-7536
렸음	-7537
마리	-7538
발견	-7539
상태	-7540
스텔	-7541
에로	-7542
여기	-7543
으셨	-7544
이죠	-7545
이큰	-7546
잔잔	-7547
제를	-7548
지르	-7549
트릭	-7550
▁to	-7551
▁가수	-7552
▁가짜	-7553
▁건질	-7554
▁기획	-7555
▁나중	-7556
▁능가	-7557
▁더더	-7558
▁모욕	-7559
▁묘한	-7560
▁밝혀	-7561
▁삶과	-7562
▁실감	-7563
▁억울	-7564
▁엘리	-7565
▁왔다	-7566
▁왠만	-7567
▁원숭	-7568
▁일을	-7569
▁있긴	-7570
▁재수	-7571
▁졸업	-7572
▁킬러	-7573
▁하기	-7574
▁한가	-7575
▁한지	-7576
▁한효	-7577
▁호불	-7578
나이트	-7579
류영화	-7580
편에서	-7581
포인트	-7582
하기에	-7583
▁110	-7584
▁162	-7585
▁283	-7586
▁363	-7587
▁414	-7588
▁424	-7589
▁440	-7590
▁660	-7591
▁674	-7592
▁775	-7593
▁836	-7594
▁그려낸	-7595
▁다시금	-7596
▁말인가	-7597
▁미국식	-7598
▁보는거	-7599
▁비쥬얼	-7600
▁안맞는	-7601
▁영화지	-7602
▁오로지	-7603
▁잘한다	-7604
▁조금만	-7605
하나하나	-7606
▁기대하지	-7607
▁뒤죽박죽	-7608
▁만들어라	-7609
▁보고나니	-7610
▁시종일관	-7611
▁아기자기	-7612
▁알파치노	-7613
▁여러모로	-7614
▁영화라서	-7615
▁왔습니다	-7616
▁잼있네요	-7617
▁지루하기	-7618
▁타란티노	-7619
▁흘러가는	-7620
▁미스캐스팅	-7621
▁사랑스럽다	-7622
▁아이들에게	-7623
▁재미없네요	-7624
▁감동적이에요	-7625
▁걷	-7626
▁덴	-7627
▁족	-7628
▁핸	-7629
▁획	-7630
관을	-7631
랐다	-7632
로그	-7633
롭게	-7634
맞는	-7635
미의	-7636
비에	-7637
사고	-7638
새록	-7639
스틱	-7640
었냐	-7641
영의	-7642
예술	-7643
유발	-7644
정쩡	-7645
주행	-7646
차피	-7647
추어	-7648
켓몬	-7649
트는	-7650
티가	-7651
해져	-7652
허무	-7653
352	-7654
▁갔다	-7655
▁긴박	-7656
▁나음	-7657
▁늑대	-7658
▁당장	-7659
▁말씀	-7660
▁미녀	-7661
▁베이	-7662
▁블루	-7663
▁수록	-7664
▁숨막	-7665
▁어딘	-7666
▁없었	-7667
▁연상	-7668
▁엽기	-7669
▁올레	-7670
▁우선	-7671
▁의상	-7672
▁자아	-7673
▁직업	-7674
▁차이	-7675
▁펼쳐	-7676
나보다	-7677
목소리	-7678
못하고	-7679
였다면	-7680
있으면	-7681
정도의	-7682
하기엔	-7683
...(	-7684
▁118	-7685
▁197	-7686
▁203	-7687
▁304	-7688
▁367	-7689
▁578	-7690
▁582	-7691
▁655	-7692
▁786	-7693
▁869	-7694
▁879	-7695
▁941	-7696
▁구성도	-7697
▁김수현	-7698
▁누군지	-7699
▁닥치고	-7700
▁도데체	-7701
▁되돌아	-7702
▁보아도	-7703
▁보여줄	-7704
▁보이지	-7705
▁브래드	-7706
▁상황을	-7707
▁생각만	-7708
▁어디에	-7709
▁역사상	-7710
▁이미지	-7711
▁줄이야	-7712
▁질질끌	-7713
▁키아누	-7714
▁페이크	-7715
▁표현이	-7716
▁하세요	-7717
▁현실은	-7718
▁흥미를	-7719
프로그램	-7720
▁고등학교	-7721
▁뭐하자는	-7722
▁바탕으로	-7723
▁보지마셈	-7724
▁산만하고	-7725
▁살아있는	-7726
▁삼류영화	-7727
▁세상에서	-7728
▁스타워즈	-7729
▁어이없다	-7730
▁오래전에	-7731
▁이야기의	-7732
▁장난하나	-7733
▁재미있어	-7734
▁충격적인	-7735
▁했습니다	-7736
▁형편없는	-7737
▁movie	-7738
▁사랑스럽고	-7739
▁억지스럽고	-7740
▁영화보다가	-7741
tt	-7742
▁ᄆ	-7743
▁벅	-7744
▁숀	-7745
▁쿨	-7746
가위	-7747
동근	-7748
됐다	-7749
드먼	-7750
때도	-7751
본색	-7752
비추	-7753
빼곤	-7754
안돼	-7755
원에	-7756
일러	-7757
일은	-7758
집어	-7759
테리	-7760
338	-7761
▁is	-7762
▁공유	-7763
▁국어	-7764
▁그가	-7765
▁극혐	-7766
▁나열	-7767
▁난리	-7768
▁났다	-7769
▁단체	-7770
▁대학	-7771
▁데스	-7772
▁드니	-7773
▁로망	-7774
▁마찬	-7775
▁말았	-7776
▁모른	-7777
▁모아	-7778
▁방해	-7779
▁볼까	-7780
▁부정	-7781
▁섬뜩	-7782
▁시켜	-7783
▁신인	-7784
▁애잔	-7785
▁원주	-7786
▁절정	-7787
▁조낸	-7788
그나마	-7789
기위해	-7790
돈주고	-7791
드네요	-7792
리는데	-7793
사람의	-7794
없는데	-7795
▁140	-7796
▁192	-7797
▁273	-7798
▁295	-7799
▁337	-7800
▁418	-7801
▁771	-7802
▁816	-7803
▁949	-7804
▁그럴싸	-7805
▁극장에	-7806
▁남는게	-7807
▁당신의	-7808
▁들어간	-7809
▁똑같이	-7810
▁미소가	-7811
▁박보영	-7812
▁박진감	-7813
▁별점이	-7814
▁부분은	-7815
▁섬세한	-7816
▁성룡의	-7817
▁아무튼	-7818
▁액션씬	-7819
▁에라이	-7820
▁역겹다	-7821
▁유덕화	-7822
▁좋으나	-7823
▁필요가	-7824
▁한다고	-7825
▁했으나	-7826
▁했을까	-7827
▁후하게	-7828
것같은데	-7829
드라마는	-7830
▁가족영화	-7831
▁기대이하	-7832
▁나머지는	-7833
▁뛰어넘는	-7834
▁모르겠네	-7835
▁별로였다	-7836
▁아까워서	-7837
▁울었어요	-7838
▁충격적이	-7839
▁캐릭터들	-7840
▁보고있는데	-7841
▁오글거리는	-7842
▁잘만들었다	-7843
▁좋아하지만	-7844
tv	-7845
▁둔	-7846
▁락	-7847
▁람	-7848
▁뻥	-7849
▁삐	-7850
▁얄	-7851
▁옴	-7852
▁컸	-7853
▁큐	-7854
▁털	-7855
각본	-7856
거의	-7857
기종	-7858
느냐	-7859
대에	-7860
때는	-7861
바라	-7862
보러	-7863
스카	-7864
시지	-7865
실히	-7866
심에	-7867
어떤	-7868
어스	-7869
의식	-7870
있냐	-7871
잡는	-7872
집에	-7873
할뻔	-7874
흥미	-7875
358	-7876
▁??	-7877
▁ᄌᄂ	-7878
▁고문	-7879
▁그로	-7880
▁극중	-7881
▁납득	-7882
▁떡밥	-7883
▁레옹	-7884
▁마냥	-7885
▁매번	-7886
▁민족	-7887
▁민주	-7888
▁바닥	-7889
▁방향	-7890
▁별거	-7891
▁비록	-7892
▁소유	-7893
▁쉬운	-7894
▁시험	-7895
▁앞서	-7896
▁에서	-7897
▁여신	-7898
▁우린	-7899
▁의사	-7900
▁전도	-7901
▁죽이	-7902
▁캐릭	-7903
▁평을	-7904
가면서	-7905
기영화	-7906
듯하다	-7907
아이가	-7908
안에서	-7909
옵니다	-7910
재밌고	-7911
죽이고	-7912
하자면	-7913
▁180	-7914
▁254	-7915
▁265	-7916
▁312	-7917
▁405	-7918
▁415	-7919
▁420	-7920
▁709	-7921
▁715	-7922
▁791	-7923
▁825	-7924
▁919	-7925
▁공포는	-7926
▁난해한	-7927
▁남자는	-7928
▁낮은지	-7929
▁넘어서	-7930
▁무섭게	-7931
▁비호감	-7932
▁생각은	-7933
▁손가락	-7934
▁안좋아	-7935
▁여자를	-7936
▁영화랑	-7937
▁의도는	-7938
▁이만한	-7939
▁이상은	-7940
▁인간들	-7941
▁장난치	-7942
▁재밌었	-7943
▁하기엔	-7944
▁하나는	-7945
▁했는지	-7946
▁다시보기	-7947
▁답답하다	-7948
▁두고두고	-7949
▁드라마로	-7950
▁몰입도도	-7951
▁유치찬란	-7952
▁정신병자	-7953
▁지루함을	-7954
▁캐스팅이	-7955
▁평점조절	-7956
▁행복하게	-7957
▁현실적이	-7958
아까운영화	-7959
▁뻔한스토리	-7960
▁엔딩크레딧	-7961
▁영화라지만	-7962
im	-7963
▁덮	-7964
▁썰	-7965
▁옮	-7966
▁짤	-7967
▁팍	-7968
개를	-7969
구역	-7970
그저	-7971
께서	-7972
더군	-7973
미친	-7974
미화	-7975
믿고	-7976
바타	-7977
스레	-7978
시네	-7979
신기	-7980
아지	-7981
장에	-7982
저것	-7983
찬욱	-7984
채널	-7985
천원	-7986
추는	-7987
태현	-7988
판을	-7989
334	-7990
449	-7991
777	-7992
ost	-7993
▁걸까	-7994
▁끝날	-7995
▁니가	-7996
▁들이	-7997
▁미션	-7998
▁부부	-7999
▁브라	-8000
▁상태	-8001
▁스펙	-8002
▁스피	-8003
▁싸우	-8004
▁아카	-8005
▁연관	-8006
▁온갖	-8007
▁우왕	-8008
▁재방	-8009
▁재앙	-8010
▁좋지	-8011
▁지옥	-8012
▁판타	-8013
나오네	-8014
부터는	-8015
시청률	-8016
치고는	-8017
하시길	-8018
very	-8019
▁213	-8020
▁314	-8021
▁437	-8022
▁457	-8023
▁498	-8024
▁522	-8025
▁830	-8026
▁842	-8027
▁926	-8028
▁가족애	-8029
▁가족을	-8030
▁개꿀잼	-8031
▁관객이	-8032
▁대사도	-8033
▁들어서	-8034
▁만든거	-8035
▁만들수	-8036
▁못만들	-8037
▁무의미	-8038
▁살아야	-8039
▁속았다	-8040
▁아이유	-8041
▁안무섭	-8042
▁웃었다	-8043
▁웃음을	-8044
▁음악은	-8045
▁이끌어	-8046
▁잘생겼	-8047
▁잼있는	-8048
▁정신이	-8049
▁짱이다	-8050
▁티비로	-8051
▁해야지	-8052
만큼이나	-8053
우리나라	-8054
있었는데	-8055
졌습니다	-8056
▁!!!!	-8057
▁괜찮네요	-8058
▁괜찮았던	-8059
▁돌아보게	-8060
▁드라마도	-8061
▁못하겠다	-8062
▁별로네요	-8063
▁실망이다	-8064
▁싶습니다	-8065
▁쓰레기는	-8066
▁아니라면	-8067
▁아쉬워요	-8068
▁안나온다	-8069
▁어울리지	-8070
▁이거보단	-8071
▁제작비가	-8072
▁스파이더맨	-8073
▁자연스럽게	-8074
bc	-8075
▁록	-8076
▁멜	-8077
▁쏠	-8078
▁앙	-8079
극을	-8080
놈이	-8081
달라	-8082
도한	-8083
돈이	-8084
렸던	-8085
베이	-8086
시스	-8087
아리	-8088
어쩌	-8089
움과	-8090
위를	-8091
저냥	-8092
저런	-8093
지네	-8094
타쿠	-8095
표정	-8096
하늘	-8097
하실	-8098
749	-8099
▁9.	-8100
▁과정	-8101
▁글고	-8102
▁나고	-8103
▁난무	-8104
▁넘치	-8105
▁담고	-8106
▁도와	-8107
▁방황	-8108
▁보석	-8109
▁비참	-8110
▁상큼	-8111
▁선정	-8112
▁수는	-8113
▁오지	-8114
▁오해	-8115
▁이지	-8116
▁인류	-8117
▁작화	-8118
▁좋앗	-8119
▁진수	-8120
▁쩔어	-8121
▁태국	-8122
▁흉내	-8123
그런데	-8124
리면서	-8125
보네요	-8126
부분은	-8127
얼마나	-8128
여자가	-8129
원에서	-8130
장면도	-8131
평점은	-8132
필버그	-8133
하길래	-8134
하지말	-8135
하하하	-8136
..!!	-8137
...!	-8138
▁127	-8139
▁150	-8140
▁204	-8141
▁214	-8142
▁253	-8143
▁350	-8144
▁373	-8145
▁550	-8146
▁552	-8147
▁562	-8148
▁604	-8149
▁737	-8150
▁809	-8151
▁821	-8152
▁900	-8153
▁951	-8154
▁가장한	-8155
▁관심이	-8156
▁느껴질	-8157
▁느끼고	-8158
▁만드네	-8159
▁명성에	-8160
▁명연기	-8161
▁보겠다	-8162
▁살리지	-8163
▁애초에	-8164
▁영상은	-8165
▁웃겼다	-8166
▁원하는	-8167
▁유치해	-8168
▁의미도	-8169
▁있었음	-8170
▁절대로	-8171
▁제목에	-8172
▁조잡한	-8173
▁충분한	-8174
▁피아노	-8175
▁하나가	-8176
▁한동안	-8177
▁한시간	-8178
더라고요	-8179
보지마라	-8180
스러웠다	-8181
▁4.44	-8182
▁스토리나	-8183
▁알려주는	-8184
▁이상하다	-8185
▁크리스찬	-8186
▁한심하다	-8187
▁점수준것들	-8188
▁감동적입니다	-8189
▁로맨틱코미디	-8190
cg	-8191
vs	-8192
▁ᄂ	-8193
▁ᄅ	-8194
▁갱	-8195
▁폼	-8196
▁힙	-8197
결혼	-8198
궁금	-8199
니스	-8200
동이	-8201
력에	-8202
망작	-8203
면이	-8204
모양	-8205
물에	-8206
미를	-8207
병맛	-8208
사도	-8209
승우	-8210
아들	-8211
약한	-8212
으려	-8213
자꾸	-8214
자도	-8215
장은	-8216
지섭	-8217
진행	-8218
질을	-8219
찾아	-8220
339	-8221
~10	-8222
ᄃᄃᄃ	-8223
▁길을	-8224
▁놀래	-8225
▁놓치	-8226
▁마법	-8227
▁막상	-8228
▁만났	-8229
▁말은	-8230
▁말해	-8231
▁맞나	-8232
▁멋짐	-8233
▁바이	-8234
▁별한	-8235
▁본격	-8236
▁불가	-8237
▁설경	-8238
▁안감	-8239
▁애틋	-8240
▁영구	-8241
▁조지	-8242
▁처절	-8243
▁하드	-8244
갔는데	-8245
결말이	-8246
고싶은	-8247
나라는	-8248
다는건	-8249
덕분에	-8250
라에몽	-8251
시키고	-8252
웠는데	-8253
점준것	-8254
학년때	-8255
▁167	-8256
▁225	-8257
▁473	-8258
▁542	-8259
▁572	-8260
▁622	-8261
▁632	-8262
▁779	-8263
▁괜찮았	-8264
▁그럴듯	-8265
▁기발한	-8266
▁나왔던	-8267
▁내취향	-8268
▁데이빗	-8269
▁뒤늦게	-8270
▁떨어뜨	-8271
▁멋있고	-8272
▁문제를	-8273
▁바라는	-8274
▁사회적	-8275
▁설정은	-8276
▁성인이	-8277
▁실망이	-8278
▁아무나	-8279
▁아이디	-8280
▁안나옴	-8281
▁안보면	-8282
▁얘기를	-8283
▁어정쩡	-8284
▁여기에	-8285
▁연기의	-8286
▁영화적	-8287
▁오리지	-8288
▁우려먹	-8289
▁이상해	-8290
▁주세요	-8291
▁풀어낸	-8292
▁해준다	-8293
너무너무	-8294
이런영화	-8295
...;;	-8296
▁2003	-8297
▁느껴졌다	-8298
▁대박이다	-8299
▁미안하다	-8300
▁보게되는	-8301
▁부족하고	-8302
▁스토리로	-8303
▁시리즈를	-8304
▁쓰레기를	-8305
▁오랫동안	-8306
▁완벽하게	-8307
▁완벽하다	-8308
▁이거보다	-8309
▁좀비영화	-8310
▁처음본다	-8311
▁파워레인	-8312
▁10275	-8313
▁보고싶은데	-8314
▁스토리전개	-8315
▁자연스러운	-8316
▁재밌었습니다	-8317
............	-8318
!?	-8319
id	-8320
▁♥	-8321
▁잉	-8322
▁찜	-8323
▁쾌	-8324
♡♥	-8325
가며	-8326
개념	-8327
광구	-8328
급도	-8329
기술	-8330
녀의	-8331
다리	-8332
돌려	-8333
러스	-8334
론의	-8335
르네	-8336
리한	-8337
만듬	-8338
명은	-8339
바닥	-8340
보던	-8341
브리	-8342
스코	-8343
았나	-8344
외로	-8345
을지	-8346
이었	-8347
인걸	-8348
진실	-8349
진창	-8350
충격	-8351
평을	-8352
호러	-8353
349	-8354
359	-8355
▁감이	-8356
▁꿈과	-8357
▁남성	-8358
▁니네	-8359
▁듣기	-8360
▁때가	-8361
▁때는	-8362
▁마블	-8363
▁먹칠	-8364
▁멋져	-8365
▁모니	-8366
▁모방	-8367
▁본능	-8368
▁봤고	-8369
▁부러	-8370
▁불법	-8371
▁빠순	-8372
▁빠질	-8373
▁상대	-8374
▁쉽지	-8375
▁실사	-8376
▁실수	-8377
▁열라	-8378
▁완젼	-8379
▁욕을	-8380
▁욕이	-8381
▁우는	-8382
▁음모	-8383
▁의한	-8384
▁의해	-8385
▁주온	-8386
▁지가	-8387
▁지극	-8388
▁지독	-8389
▁짬뽕	-8390
▁찬양	-8391
▁코스	-8392
▁클로	-8393
것보다	-8394
그런지	-8395
끝나고	-8396
나가는	-8397
느낌이	-8398
라는걸	-8399
없었다	-8400
엇어요	-8401
에다가	-8402
인지는	-8403
점대가	-8404
좋은데	-8405
판타지	-8406
하기가	-8407
▁347	-8408
▁430	-8409
▁432	-8410
▁510	-8411
▁540	-8412
▁678	-8413
▁827	-8414
▁bad	-8415
▁그런거	-8416
▁그림체	-8417
▁그이상	-8418
▁낮네요	-8419
▁눈으로	-8420
▁니들이	-8421
▁버렸다	-8422
▁살렸다	-8423
▁세련된	-8424
▁세월이	-8425
▁시간도	-8426
▁심하다	-8427
▁아이를	-8428
▁애니는	-8429
▁어수선	-8430
▁웃겨서	-8431
▁음악을	-8432
▁잘보고	-8433
▁크레딧	-8434
▁편하게	-8435
▁한석규	-8436
▁했어요	-8437
이라는게	-8438
▁2015	-8439
▁감독에게	-8440
▁고등학생	-8441
▁런닝타임	-8442
▁만들어주	-8443
▁분위기는	-8444
▁아니잖아	-8445
▁않습니다	-8446
▁억지스런	-8447
▁이영화에	-8448
▁있겠지만	-8449
▁재난영화	-8450
▁제대로된	-8451
▁최고에요	-8452
애니메이션	-8453
▁주인공들이	-8454
▁현실적이고	-8455
ᄏᄏᄏᄏᄏᄏᄏᄏᄏ	-8456
▁벽	-8457
▁젖	-8458
가야	-8459
경을	-8460
계를	-8461
기나	-8462
내서	-8463
누라	-8464
랬다	-8465
리즘	-8466
못함	-8467
버츠	-8468
부에	-8469
속을	-8470
수작	-8471
승헌	-8472
시킬	-8473
알고	-8474
에휴	-8475
예쁘	-8476
은듯	-8477
이미	-8478
줘요	-8479
지에	-8480
크로	-8481
플린	-8482
형이	-8483
홧팅	-8484
▁강요	-8485
▁걸로	-8486
▁구조	-8487
▁굳굳	-8488
▁귀찮	-8489
▁극본	-8490
▁넘쳐	-8491
▁니들	-8492
▁되면	-8493
▁들게	-8494
▁미학	-8495
▁본것	-8496
▁비정	-8497
▁사과	-8498
▁생존	-8499
▁소소	-8500
▁시골	-8501
▁신세	-8502
▁신이	-8503
▁쓰러	-8504
▁역작	-8505
▁웃을	-8506
▁입장	-8507
▁있냐	-8508
▁잡아	-8509
▁정사	-8510
▁조차	-8511
▁주관	-8512
▁준비	-8513
▁짜리	-8514
▁쩌는	-8515
▁채워	-8516
▁틀림	-8517
▁팝콘	-8518
▁한거	-8519
▁호흡	-8520
는것도	-8521
분짜리	-8522
였네요	-8523
영화제	-8524
이었던	-8525
이후로	-8526
있다면	-8527
탈리아	-8528
하나요	-8529
****	-8530
▁145	-8531
▁280	-8532
▁322	-8533
▁423	-8534
▁427	-8535
▁442	-8536
▁468	-8537
▁470	-8538
▁474	-8539
▁495	-8540
▁548	-8541
▁611	-8542
▁654	-8543
▁886	-8544
▁가족과	-8545
▁감성을	-8546
▁과정이	-8547
▁나루토	-8548
▁멋져요	-8549
▁모습에	-8550
▁밋밋한	-8551
▁벗어나	-8552
▁상처를	-8553
▁상황이	-8554
▁심장이	-8555
▁안가는	-8556
▁않아요	-8557
▁알바가	-8558
▁에드워	-8559
▁연기로	-8560
▁이하도	-8561
▁인상적	-8562
▁죽음을	-8563
▁처음이	-8564
▁첨으로	-8565
▁초반엔	-8566
▁포켓몬	-8567
생각으로	-8568
스토리는	-8569
▁9305	-8570
▁가슴아프	-8571
▁개인적인	-8572
▁그냥저냥	-8573
▁기대했던	-8574
▁긴장감과	-8575
▁나오네요	-8576
▁너무하네	-8577
▁니콜라스	-8578
▁드라마중	-8579
▁마찬가지	-8580
▁모든것이	-8581
▁아버지가	-8582
▁완성도가	-8583
▁입장에서	-8584
▁평론가들	-8585
▁호불호가	-8586
▁되었습니다	-8587
▁애니매이션	-8588
▁오그라드는	-8589
▁이렇게까지	-8590
▁말이필요없다	-8591
!~	-8592
et	-8593
ᅮᅲ	-8594
▁곤	-8595
▁똘	-8596
▁롤	-8597
▁뺏	-8598
▁쌓	-8599
▁짙	-8600
▁찔	-8601
감한	-8602
고한	-8603
데렐	-8604
되요	-8605
드립	-8606
릴때	-8607
맞고	-8608
받아	-8609
방식	-8610
보소	-8611
스틴	-8612
아의	-8613
어른	-8614
어를	-8615
옛날	-8616
을것	-8617
임이	-8618
철학	-8619
치다	-8620
프리	-8621
혜선	-8622
..2	-8623
332	-8624
348	-8625
▁가만	-8626
▁가야	-8627
▁간단	-8628
▁감수	-8629
▁갖게	-8630
▁거다	-8631
▁경악	-8632
▁공룡	-8633
▁껐다	-8634
▁남의	-8635
▁누나	-8636
▁늙은	-8637
▁다름	-8638
▁대결	-8639
▁대역	-8640
▁도시	-8641
▁러셀	-8642
▁머야	-8643
▁면이	-8644
▁무식	-8645
▁반갑	-8646
▁부드	-8647
▁새록	-8648
▁새삼	-8649
▁신은	-8650
▁안좋	-8651
▁없던	-8652
▁연습	-8653
▁와서	-8654
▁으로	-8655
▁이나	-8656
▁적은	-8657
▁졸잼	-8658
▁차승	-8659
▁참여	-8660
▁초월	-8661
▁커버	-8662
▁커서	-8663
▁포함	-8664
▁피식	-8665
▁한글	-8666
▁허나	-8667
것같음	-8668
것인가	-8669
다는것	-8670
달라고	-8671
모르게	-8672
보인다	-8673
분정도	-8674
뻔했다	-8675
사람도	-8676
셨으면	-8677
아깝고	-8678
있을까	-8679
재밋음	-8680
주는데	-8681
지않아	-8682
해가는	-8683
회부터	-8684
▁112	-8685
▁224	-8686
▁257	-8687
▁293	-8688
▁310	-8689
▁619	-8690
▁652	-8691
▁704	-8692
▁811	-8693
▁감성이	-8694
▁거기다	-8695
▁게스트	-8696
▁군더더	-8697
▁나와야	-8698
▁느껴지	-8699
▁못했던	-8700
▁박찬욱	-8701
▁받아야	-8702
▁보이고	-8703
▁빨갱이	-8704
▁슈퍼맨	-8705
▁싶다면	-8706
▁안되네	-8707
▁안보는	-8708
▁안봐서	-8709
▁엔딩은	-8710
▁연기만	-8711
▁영화란	-8712
▁영화볼	-8713
▁왔는데	-8714
▁이딴게	-8715
▁이해도	-8716
▁적당한	-8717
▁정주행	-8718
▁책으로	-8719
▁테이큰	-8720
▁화끈한	-8721
▁흉내내	-8722
드라마를	-8723
재미있다	-8724
점주기도	-8725
▁걸작이다	-8726
▁귀여워서	-8727
▁기대된다	-8728
▁긴장감은	-8729
▁동화같은	-8730
▁마지막은	-8731
▁만들었냐	-8732
▁말하려는	-8733
▁몰입하게	-8734
▁시리즈가	-8735
▁심각하게	-8736
▁아이언맨	-8737
▁영상미도	-8738
▁영웅본색	-8739
▁우리에게	-8740
▁의미있는	-8741
▁이어지는	-8742
▁전편보다	-8743
▁주고싶다	-8744
▁캐릭터는	-8745
▁필요한가	-8746
▁후반부에	-8747
▁흥미롭게	-8748
▁강추합니다	-8749
▁다시봤는데	-8750
.?	-8751
il	-8752
▁ᄊ	-8753
▁곡	-8754
개의	-8755
거에	-8756
구를	-8757
답다	-8758
동화	-8759
들린	-8760
땜시	-8761
뜨고	-8762
래요	-8763
렸네	-8764
명한	-8765
미안	-8766
배는	-8767
버튼	-8768
복수	-8769
상한	-8770
소가	-8771
스란	-8772
심한	-8773
암튼	-8774
일에	-8775
자인	-8776
좀비	-8777
팬이	-8778
한편	-8779
혀서	-8780
혜교	-8781
301	-8782
778	-8783
▁1~	-8784
▁3.	-8785
▁거듭	-8786
▁구경	-8787
▁권상	-8788
▁기적	-8789
▁김명	-8790
▁낭만	-8791
▁높지	-8792
▁당할	-8793
▁되서	-8794
▁레오	-8795
▁마니	-8796
▁많네	-8797
▁매주	-8798
▁머냐	-8799
▁물어	-8800
▁미쳐	-8801
▁반응	-8802
▁받았	-8803
▁보구	-8804
▁삶은	-8805
▁색채	-8806
▁성의	-8807
▁소년	-8808
▁소품	-8809
▁스토	-8810
▁싶음	-8811
▁아팠	-8812
▁안봄	-8813
▁앉아	-8814
▁여유	-8815
▁역겹	-8816
▁오페	-8817
▁용기	-8818
▁우승	-8819
▁유승	-8820
▁재탕	-8821
▁적이	-8822
▁죽어	-8823
▁최대	-8824
갑자기	-8825
것처럼	-8826
게다가	-8827
고싶어	-8828
긴장감	-8829
넘치는	-8830
던데요	-8831
라지만	-8832
소리는	-8833
시네요	-8834
시키지	-8835
아닌데	-8836
안된다	-8837
없지만	-8838
으세요	-8839
이들의	-8840
인영화	-8841
재미가	-8842
창시절	-8843
...1	-8844
▁488	-8845
▁579	-8846
▁602	-8847
▁628	-8848
▁782	-8849
▁796	-8850
▁거기서	-8851
▁결국엔	-8852
▁결국은	-8853
▁기대한	-8854
▁노래는	-8855
▁느낀다	-8856
▁대사와	-8857
▁말밖에	-8858
▁말았다	-8859
▁무서움	-8860
▁믿기지	-8861
▁바란다	-8862
▁비해서	-8863
▁송승헌	-8864
▁시간과	-8865
▁시간은	-8866
▁심리묘	-8867
▁알바생	-8868
▁알수있	-8869
▁앞에서	-8870
▁액션의	-8871
▁어중간	-8872
▁어차피	-8873
▁없어도	-8874
▁웃다가	-8875
▁웃으며	-8876
▁이라는	-8877
▁일어나	-8878
▁작품에	-8879
▁장르를	-8880
▁재밋고	-8881
▁전개에	-8882
▁전라도	-8883
▁점에서	-8884
▁좋더라	-8885
▁진실을	-8886
▁총체적	-8887
▁추억을	-8888
없습니다	-8889
여주인공	-8890
하고싶은	-8891
▁2.22	-8892
▁느껴지지	-8893
▁빠져들게	-8894
▁어설프게	-8895
▁지금보면	-8896
▁진행되는	-8897
▁최고인듯	-8898
▁충분하다	-8899
▁캐스팅은	-8900
▁허접하고	-8901
보지마세요	-8902
하겠습니다	-8903
하셨습니다	-8904
▁만들었으면	-8905
▁아깝습니다	-8906
▁여주인공의	-8907
▁영화였는데	-8908
▁주인공들의	-8909
:)	-8910
▁석	-8911
▁찐	-8912
▁퀴	-8913
같네	-8914
귀신	-8915
년을	-8916
누가	-8917
돌이	-8918
두번	-8919
많고	-8920
멤버	-8921
스턴	-8922
영은	-8923
작은	-8924
저나	-8925
져야	-8926
판에	-8927
한텐	-8928
희는	-8929
▁고증	-8930
▁기법	-8931
▁됐다	-8932
▁로마	-8933
▁마녀	-8934
▁마다	-8935
▁말아	-8936
▁멘탈	-8937
▁모순	-8938
▁반도	-8939
▁백인	-8940
▁버무	-8941
▁번역	-8942
▁성형	-8943
▁센스	-8944
▁속이	-8945
▁손꼽	-8946
▁수사	-8947
▁시체	-8948
▁심한	-8949
▁아메	-8950
▁어땠	-8951
▁엉뚱	-8952
▁오직	-8953
▁올드	-8954
▁위트	-8955
▁유익	-8956
▁음향	-8957
▁일찍	-8958
▁재치	-8959
▁죽인	-8960
▁지저	-8961
▁찍는	-8962
▁추구	-8963
▁치료	-8964
▁커녕	-8965
▁텐데	-8966
▁파고	-8967
▁편의	-8968
▁픽션	-8969
▁하니	-8970
▁해외	-8971
▁했나	-8972
▁화질	-8973
나올때	-8974
너무잘	-8975
리지만	-8976
마르소	-8977
마저도	-8978
보려고	-8979
스포머	-8980
었다면	-8981
여배우	-8982
였구나	-8983
이거나	-8984
자들은	-8985
재밋다	-8986
줘야지	-8987
지루해	-8988
판으로	-8989
편까지	-8990
할수도	-8991
▁194	-8992
▁268	-8993
▁284	-8994
▁342	-8995
▁354	-8996
▁402	-8997
▁648	-8998
▁670	-8999
▁702	-9000
▁731	-9001
▁839	-9002
▁849	-9003
▁과장된	-9004
▁기억을	-9005
▁나머진	-9006
▁다니엘	-9007
▁매력적	-9008
▁명배우	-9009
▁모르겟	-9010
▁못따라	-9011
▁반지의	-9012
▁받았다	-9013
▁보고난	-9014
▁보낸다	-9015
▁본듯한	-9016
▁뻔하다	-9017
▁소리가	-9018
▁아놀드	-9019
▁아바타	-9020
▁아이고	-9021
▁애니를	-9022
▁액션만	-9023
▁여운도	-9024
▁예뻐서	-9025
▁원작은	-9026
▁이것은	-9027
▁일주일	-9028
▁잼없다	-9029
▁적나라	-9030
▁전율이	-9031
▁지극히	-9032
▁최악임	-9033
▁편인데	-9034
▁하하하	-9035
오랜만에	-9036
하지말고	-9037
할수있는	-9038
▁2005	-9039
▁감동이다	-9040
▁나오는거	-9041
▁내용전개	-9042
▁메세지를	-9043
▁불쌍해서	-9044
▁사랑한다	-9045
▁스릴러물	-9046
▁싶었는데	-9047
▁여자들이	-9048
▁영화같다	-9049
▁영화인것	-9050
▁이것보다	-9051
▁인물들의	-9052
▁잘하네요	-9053
▁초반에는	-9054
▁후반부로	-9055
줄알았는데	-9056
▁러닝타임이	-9057
▁아직까지도	-9058
▁킬링타임용으로도	-9059
_^	-9060
▁껏	-9061
▁맑	-9062
▁헉	-9063
간이	-9064
고도	-9065
공주	-9066
깊은	-9067
놀이	-9068
롭다	-9069
봤네	-9070
사라	-9071
센스	-9072
시켰	-9073
실패	-9074
알아	-9075
여러	-9076
율이	-9077
장센	-9078
제일	-9079
카메	-9080
코드	-9081
쾌한	-9082
편과	-9083
평생	-9084
폭력	-9085
하의	-9086
한가	-9087
할것	-9088
331	-9089
772	-9090
▁ᅲᅮ	-9091
▁고양	-9092
▁공연	-9093
▁공허	-9094
▁국산	-9095
▁끝남	-9096
▁끝판	-9097
▁나면	-9098
▁넣어	-9099
▁노무	-9100
▁대부	-9101
▁돼지	-9102
▁따스	-9103
▁딸이	-9104
▁마리	-9105
▁맞추	-9106
▁모양	-9107
▁본건	-9108
▁생명	-9109
▁안다	-9110
▁열광	-9111
▁옆에	-9112
▁오유	-9113
▁외면	-9114
▁욕심	-9115
▁웃는	-9116
▁위안	-9117
▁의견	-9118
▁이뻤	-9119
▁인권	-9120
▁자리	-9121
▁정석	-9122
▁졸리	-9123
▁지경	-9124
▁지키	-9125
▁커피	-9126
▁평론	-9127
▁한줄	-9128
▁한쿡	-9129
▁회상	-9130
것같아	-9131
것들이	-9132
더럽게	-9133
방에서	-9134
보기엔	-9135
샌들러	-9136
시대의	-9137
으면좋	-9138
잘만들	-9139
정도는	-9140
중간에	-9141
지부지	-9142
▁170	-9143
▁223	-9144
▁240	-9145
▁243	-9146
▁255	-9147
▁264	-9148
▁412	-9149
▁538	-9150
▁608	-9151
▁653	-9152
▁841	-9153
▁906	-9154
▁936	-9155
▁간간히	-9156
▁꼭봐야	-9157
▁나올까	-9158
▁느낌도	-9159
▁다이하	-9160
▁무간도	-9161
▁보지도	-9162
▁비행기	-9163
▁설명이	-9164
▁소재만	-9165
▁손색이	-9166
▁시대가	-9167
▁아픔을	-9168
▁여자애	-9169
▁영향을	-9170
▁왕가위	-9171
▁유치원	-9172
▁의도를	-9173
▁제목은	-9174
▁한효주	-9175
었을텐데	-9176
재미없어	-9177
줄알았다	-9178
킬링타임	-9179
▁OOOO	-9180
▁감동적임	-9181
▁겨울왕국	-9182
▁기억난다	-9183
▁남아있는	-9184
▁다큐멘터	-9185
▁도라에몽	-9186
▁또보고싶	-9187
▁바라보는	-9188
▁스필버그	-9189
▁슬픈영화	-9190
▁야하지도	-9191
▁어디까지	-9192
▁엉망진창	-9193
▁여배우의	-9194
▁연기자들	-9195
▁영화들이	-9196
▁욕나온다	-9197
▁이따위로	-9198
▁이런것도	-9199
▁정말정말	-9200
▁좋아했던	-9201
▁처음이네	-9202
▁학창시절	-9203
▁훈훈하고	-9204
▁힘들었다	-9205
...-_-	-9206
▁감동입니다	-9207
▁소피마르소	-9208
▁이런식으로	-9209
▁인간적으로	-9210
▁있었습니다	-9211
▁감동적이었다	-9212
.(	-9213
▁닭	-9214
▁밴	-9215
▁셋	-9216
▁웹	-9217
▁혈	-9218
거워	-9219
겨운	-9220
구먼	-9221
듣고	-9222
등장	-9223
라곤	-9224
란한	-9225
랄한	-9226
러니	-9227
려도	-9228
멋진	-9229
비는	-9230
수정	-9231
숙한	-9232
순수	-9233
스펜	-9234
오고	-9235
올라	-9236
운데	-9237
원도	-9238
일때	-9239
잘못	-9240
잘생	-9241
전은	-9242
즈가	-9243
진의	-9244
천재	-9245
펙트	-9246
평이	-9247
할거	-9248
할줄	-9249
371	-9250
771	-9251
776	-9252
▁1.	-9253
▁각각	-9254
▁거야	-9255
▁것과	-9256
▁고작	-9257
▁공주	-9258
▁날아	-9259
▁남고	-9260
▁내고	-9261
▁눈요	-9262
▁눈치	-9263
▁될듯	-9264
▁들지	-9265
▁로멘	-9266
▁명확	-9267
▁목적	-9268
▁몰아	-9269
▁문득	-9270
▁미술	-9271
▁미야	-9272
▁박시	-9273
▁배드	-9274
▁배울	-9275
▁보신	-9276
▁봤나	-9277
▁브로	-9278
▁수십	-9279
▁순진	-9280
▁숨어	-9281
▁승부	-9282
▁심사	-9283
▁안녕	-9284
▁애가	-9285
▁없애	-9286
▁오인	-9287
▁의지	-9288
▁이중	-9289
▁일일	-9290
▁자위	-9291
▁잘안	-9292
▁적극	-9293
▁중의	-9294
▁지워	-9295
▁패션	-9296
▁한정	-9297
그래픽	-9298
러티브	-9299
마음이	-9300
사람을	-9301
씩이나	-9302
에대해	-9303
지말자	-9304
지않게	-9305
지않음	-9306
▁107	-9307
▁136	-9308
▁212	-9309
▁217	-9310
▁267	-9311
▁629	-9312
▁672	-9313
▁694	-9314
▁788	-9315
▁799	-9316
▁고인의	-9317
▁관람객	-9318
▁국어책	-9319
▁귀신이	-9320
▁김희선	-9321
▁내시간	-9322
▁달리는	-9323
▁답답해	-9324
▁당시엔	-9325
▁대학생	-9326
▁더러워	-9327
▁되어야	-9328
▁만화가	-9329
▁명작임	-9330
▁뭐랄까	-9331
▁믿을게	-9332
▁보고도	-9333
▁보는것	-9334
▁세상의	-9335
▁시대적	-9336
▁아련한	-9337
▁어쨌든	-9338
▁어쩌다	-9339
▁엄정화	-9340
▁영화찍	-9341
▁이딴거	-9342
▁있는가	-9343
▁자체도	-9344
▁장르의	-9345
▁재방송	-9346
▁주연의	-9347
▁줄리아	-9348
▁중학교	-9349
▁통해서	-9350
▁표정이	-9351
▁하지말	-9352
▁하지원	-9353
▁한계를	-9354
▁흠잡을	-9355
떨어지는	-9356
지루하다	-9357
.""""	-9358
..-_-	-9359
▁돈아까워	-9360
▁마무리가	-9361
▁미친듯이	-9362
▁보는동안	-9363
▁에드워드	-9364
▁연기력과	-9365
▁영상미와	-9366
▁영화제목	-9367
▁오글거림	-9368
▁오락영화	-9369
▁웬만하면	-9370
▁이기적인	-9371
▁일본에서	-9372
▁재미없을	-9373
▁재밋네요	-9374
▁줄거리가	-9375
▁지금이나	-9376
▁지루했음	-9377
▁드라마라고	-9378
▁우리나라의	-9379
▁재미없었음	-9380
▁좋아하시는	-9381
▁클레멘타인	-9382
▁ᄏᄏᄏᄏᄏᄏᄏᄏᄏ	-9383
cn	-9384
▁숲	-9385
거죠	-9386
겠고	-9387
격이	-9388
구는	-9389
구리	-9390
기면	-9391
넘게	-9392
놈은	-9393
놈의	-9394
님을	-9395
다들	-9396
대기	-9397
두사	-9398
뒤에	-9399
려야	-9400
맞추	-9401
미도	-9402
시도	-9403
않고	-9404
였을	-9405
원래	-9406
자막	-9407
재현	-9408
저기	-9409
저는	-9410
정보	-9411
조아	-9412
죽여	-9413
줘도	-9414
지환	-9415
▁갖춘	-9416
▁것들	-9417
▁그에	-9418
▁꺼져	-9419
▁남긴	-9420
▁내세	-9421
▁농담	-9422
▁된장	-9423
▁따듯	-9424
▁마구	-9425
▁망설	-9426
▁모독	-9427
▁모호	-9428
▁못하	-9429
▁박정	-9430
▁박평	-9431
▁발음	-9432
▁봤지	-9433
▁부각	-9434
▁아아	-9435
▁연인	-9436
▁였다	-9437
▁예뻤	-9438
▁욕만	-9439
▁월드	-9440
▁이란	-9441
▁이순	-9442
▁잘해	-9443
▁정통	-9444
▁제왕	-9445
▁지상	-9446
▁찾기	-9447
▁출발	-9448
▁클리	-9449
▁피곤	-9450
▁핸드	-9451
▁향한	-9452
▁허탈	-9453
▁흥분	-9454
▁힙합	-9455
내용을	-9456
너무나	-9457
부분도	-9458
손가락	-9459
이들이	-9460
지라도	-9461
하고도	-9462
함으로	-9463
0000	-9464
▁115	-9465
▁195	-9466
▁237	-9467
▁244	-9468
▁262	-9469
▁375	-9470
▁448	-9471
▁532	-9472
▁642	-9473
▁666	-9474
▁823	-9475
▁896	-9476
▁가치도	-9477
▁그들을	-9478
▁기가막	-9479
▁김민종	-9480
▁더욱더	-9481
▁돈으로	-9482
▁만화를	-9483
▁못해서	-9484
▁본적이	-9485
▁사투리	-9486
▁소리만	-9487
▁스페인	-9488
▁신세계	-9489
▁애들도	-9490
▁약하다	-9491
▁어디가	-9492
▁언젠가	-9493
▁엑스맨	-9494
▁우울한	-9495
▁이루어	-9496
▁일본인	-9497
▁전지현	-9498
▁중후반	-9499
▁첫번째	-9500
▁초중반	-9501
모르겠다	-9502
볼때마다	-9503
아름다운	-9504
영화에서	-9505
프라이즈	-9506
하는것도	-9507
▁다시보게	-9508
▁만든건지	-9509
▁만으로도	-9510
▁발연기에	-9511
▁분위기를	-9512
▁사람에게	-9513
▁식상하다	-9514
▁쓰레기가	-9515
▁쓰레기네	-9516
▁어이없고	-9517
▁여태까지	-9518
▁영화같은	-9519
▁이것저것	-9520
▁이따구로	-9521
▁잊지못할	-9522
▁진부하다	-9523
▁하지마라	-9524
▁환상적인	-9525
▁10273	-9526
▁명작이라고	-9527
▁보고싶네요	-9528
▁트랜스포머	-9529
▁흥미진진한	-9530
!!!!!!!	-9531
ᄉᄇ	-9532
▁ᄃ	-9533
▁뚜	-9534
▁붉	-9535
▁뼈	-9536
▁쌈	-9537
▁쏴	-9538
▁측	-9539
▁컷	-9540
▁훔	-9541
가라	-9542
감에	-9543
곳이	-9544
급의	-9545
남아	-9546
남을	-9547
년간	-9548
더러	-9549
더스	-9550
말까	-9551
면을	-9552
문을	-9553
부모	-9554
뽕짝	-9555
성룡	-9556
실화	-9557
아냐	-9558
오로	-9559
왔던	-9560
인해	-9561
자식	-9562
주네	-9563
지원	-9564
지효	-9565
트라	-9566
특집	-9567
힘든	-9568
779	-9569
ttp	-9570
▁가라	-9571
▁개잼	-9572
▁고질	-9573
▁길다	-9574
▁깨끗	-9575
▁나을	-9576
▁낚인	-9577
▁남친	-9578
▁내일	-9579
▁덴젤	-9580
▁동감	-9581
▁되야	-9582
▁많음	-9583
▁몰락	-9584
▁반감	-9585
▁배가	-9586
▁법정	-9587
▁보일	-9588
▁본인	-9589
▁빠르	-9590
▁빨간	-9591
▁색깔	-9592
▁샤론	-9593
▁스킵	-9594
▁신화	-9595
▁애로	-9596
▁애절	-9597
▁어마	-9598
▁에릭	-9599
▁엠마	-9600
▁연주	-9601
▁인지	-9602
▁잘하	-9603
▁잼나	-9604
▁조아	-9605
▁줘도	-9606
▁지는	-9607
▁컬트	-9608
▁퇴보	-9609
같네요	-9610
깁니다	-9611
나저나	-9612
눈물이	-9613
니버스	-9614
말고는	-9615
볼수록	-9616
스러울	-9617
이란게	-9618
이해가	-9619
조차도	-9620
평점을	-9621
▁183	-9622
▁245	-9623
▁382	-9624
▁410	-9625
▁729	-9626
▁MBC	-9627
▁게임을	-9628
▁결과는	-9629
▁굿굿굿	-9630
▁그시절	-9631
▁기대안	-9632
▁남기는	-9633
▁더더욱	-9634
▁만드냐	-9635
▁만들다	-9636
▁못하네	-9637
▁미래를	-9638
▁미치는	-9639
▁빈약한	-9640
▁빠지게	-9641
▁사회의	-9642
▁손예진	-9643
▁슬펐다	-9644
▁신데렐	-9645
▁없으니	-9646
▁엑소시	-9647
▁연기한	-9648
▁오우삼	-9649
▁웃긴다	-9650
▁원작과	-9651
▁원주율	-9652
▁의문이	-9653
▁작가는	-9654
▁장동건	-9655
▁잼나요	-9656
▁최고인	-9657
▁카메론	-9658
▁터지는	-9659
▁평점왜	-9660
왔습니다	-9661
재밋어요	-9662
티비에서	-9663
하고싶다	-9664
▁2013	-9665
▁드래곤볼	-9666
▁떠오르는	-9667
▁메세지가	-9668
▁새록새록	-9669
▁생각나게	-9670
▁싫어하는	-9671
▁아마추어	-9672
▁안나오고	-9673
▁안나오는	-9674
▁의미없는	-9675
▁이야기에	-9676
▁이탈리아	-9677
▁인생에서	-9678
▁잔인하고	-9679
▁지루함이	-9680
▁초반부터	-9681
▁추천한다	-9682
▁코미디는	-9683
▁톰크루즈	-9684
▁하고싶은	-9685
▁흐지부지	-9686
최고의영화	-9687
▁명작이네요	-9688
▁아쉬웠지만	-9689
▁이영화보고	-9690
▁재밌게봤는데	-9691
ce	-9692
el	-9693
na	-9694
▁U	-9695
▁j	-9696
▁쉴	-9697
▁좆	-9698
▁콧	-9699
▁탕	-9700
개연	-9701
급이	-9702
꼬마	-9703
끄는	-9704
끝내	-9705
노출	-9706
니의	-9707
데요	-9708
동을	-9709
될듯	-9710
랑은	-9711
려진	-9712
문의	-9713
물은	-9714
번도	-9715
사한	-9716
삼류	-9717
서트	-9718
소장	-9719
신선	-9720
실력	-9721
써요	-9722
아침	-9723
양의	-9724
어마	-9725
어보	-9726
에이	-9727
오오	-9728
일단	-9729
잇다	-9730
전문	-9731
전체	-9732
중요	-9733
지우	-9734
진은	-9735
질때	-9736
차이	-9737
치만	-9738
통수	-9739
하이	-9740
해본	-9741
현준	-9742
://	-9743
com	-9744
▁in	-9745
▁ᄇᄉ	-9746
▁거장	-9747
▁괴수	-9748
▁구지	-9749
▁극찬	-9750
▁김선	-9751
▁깜놀	-9752
▁끝은	-9753
▁내리	-9754
▁노튼	-9755
▁단역	-9756
▁돈과	-9757
▁돈벌	-9758
▁돈은	-9759
▁드문	-9760
▁때의	-9761
▁람보	-9762
▁마틴	-9763
▁만날	-9764
▁만듬	-9765
▁만세	-9766
▁맞다	-9767
▁믿기	-9768
▁버릴	-9769
▁분장	-9770
▁사로	-9771
▁성적	-9772
▁쓰나	-9773
▁안겨	-9774
▁않네	-9775
▁에바	-9776
▁영광	-9777
▁완죤	-9778
▁유령	-9779
▁이를	-9780
▁인가	-9781
▁정준	-9782
▁존잼	-9783
▁쥐어	-9784
▁집단	-9785
▁카피	-9786
▁크다	-9787
▁환장	-9788
기보단	-9789
기종영	-9790
네이버	-9791
돈으로	-9792
드려요	-9793
만하고	-9794
보시길	-9795
봣어요	-9796
빼고는	-9797
새끼들	-9798
세상에	-9799
스트라	-9800
습니당	-9801
십니다	-9802
안되고	-9803
에서만	-9804
원주고	-9805
이니까	-9806
입니까	-9807
재밌는	-9808
집에서	-9809
특유의	-9810
하구만	-9811
하는듯	-9812
할게요	-9813
▁138	-9814
▁147	-9815
▁153	-9816
▁263	-9817
▁526	-9818
▁569	-9819
▁626	-9820
▁691	-9821
▁699	-9822
▁719	-9823
▁강하게	-9824
▁개봉을	-9825
▁굉장한	-9826
▁낚여서	-9827
▁남기고	-9828
▁남자를	-9829
▁높은지	-9830
▁다른건	-9831
▁대사는	-9832
▁도움이	-9833
▁떨어져	-9834
▁또봐도	-9835
▁뛰어나	-9836
▁만들기	-9837
▁문제는	-9838
▁미장센	-9839
▁배우와	-9840
▁보여줌	-9841
▁봤는지	-9842
▁봤다는	-9843
▁불륜을	-9844
▁사람과	-9845
▁설정과	-9846
▁아니네	-9847
▁아빠가	-9848
▁알아야	-9849
▁어설퍼	-9850
▁연출을	-9851
▁영화계	-9852
▁윌리스	-9853
▁의외의	-9854
▁이정재	-9855
▁재미만	-9856
▁정우성	-9857
▁짱짱맨	-9858
▁클래식	-9859
▁탁월한	-9860
▁특이한	-9861
▁편견을	-9862
▁평가를	-9863
▁한가지	-9864
▁한번씩	-9865
▁할말을	-9866
▁함부로	-9867
재미있음	-9868
하더라도	-9869
한마디로	-9870
할수없는	-9871
▁9913	-9872
▁best	-9873
▁군더더기	-9874
▁만들어야	-9875
▁많은것을	-9876
▁무슨말이	-9877
▁사람마다	-9878
▁생각했던	-9879
▁아깝다는	-9880
▁아니네요	-9881
▁아이들은	-9882
▁여배우가	-9883
▁영화내내	-9884
▁이상으로	-9885
▁인상깊게	-9886
▁재밋는데	-9887
▁지루함의	-9888
▁캐릭터의	-9889
점도아깝다	-9890
▁-_-;;	-9891
▁공포영화가	-9892
▁시간때우기	-9893
▁시나리오도	-9894
▁오글거려서	-9895
▁잔잔하지만	-9896
;;;;;;;;	-9897
.............	-9898
ch	-9899
ct	-9900
op	-9901
▁넓	-9902
▁닌	-9903
▁밉	-9904
▁뿜	-9905
▁얽	-9906
▁왓	-9907
▁탱	-9908
▁톱	-9909
▁핀	-9910
가게	-9911
그림	-9912
극의	-9913
금보	-9914
깝다	-9915
누구	-9916
닝맨	-9917
다코	-9918
대화	-9919
던거	-9920
두근	-9921
디가	-9922
래셔	-9923
려니	-9924
밑에	-9925
살에	-9926
상욱	-9927
서방	-9928
설마	-9929
스피	-9930
슬리	-9931
시라	-9932
심의	-9933
앞에	-9934
연의	-9935
유머	-9936
이형	-9937
자에	-9938
짓을	-9939
치기	-9940
케팅	-9941
타는	-9942
토퍼	-9943
파서	-9944
펭귄	-9945
필름	-9946
하죠	-9947
헷갈	-9948
화면	-9949
,..	-9950
330	-9951
333	-9952
335	-9953
~~!	-9954
▁6.	-9955
▁가난	-9956
▁가을	-9957
▁간지	-9958
▁고소	-9959
▁그를	-9960
▁그와	-9961
▁그외	-9962
▁기록	-9963
▁김윤	-9964
▁끊임	-9965
▁노골	-9966
▁대가	-9967
▁돈만	-9968
▁드물	-9969
▁듣는	-9970
▁등록	-9971
▁멀쩡	-9972
▁무대	-9973
▁무색	-9974
▁번을	-9975
▁베트	-9976
▁사망	-9977
▁살리	-9978
▁상어	-9979
▁솔까	-9980
▁어케	-9981
▁에러	-9982
▁완성	-9983
▁우롱	-9984
▁이전	-9985
▁일관	-9986
▁장소	-9987
▁장혁	-9988
▁재현	-9989
▁종합	-9990
▁지하	-9991
▁징징	-9992
▁쯧쯧	-9993
▁참을	-9994
▁추가	-9995
▁코드	-9996
▁태권	-9997
▁하긴	-9998
▁학살	-9999
▁한대	-10000
▁한예	-10001
▁황금	-10002
감동도	-10003
거같아	-10004
년동안	-10005
는거냐	-10006
들어서	-10007
들이다	-10008
떨어진	-10009
러워서	-10010
렸는데	-10011
받아서	-10012
버리지	-10013
사에서	-10014
성으로	-10015
필요한	-10016
하지는	-10017
1777	-10018
▁134	-10019
▁154	-10020
▁168	-10021
▁227	-10022
▁285	-10023
▁313	-10024
▁330	-10025
▁372	-10026
▁452	-10027
▁563	-10028
▁586	-10029
▁741	-10030
▁789	-10031
▁가까이	-10032
▁같지만	-10033
▁겉멋만	-10034
▁경의를	-10035
▁공포도	-10036
▁관심을	-10037
▁나오기	-10038
▁나와도	-10039
▁대사를	-10040
▁돈낭비	-10041
▁두시간	-10042
▁들어도	-10043
▁또라이	-10044
▁매력은	-10045
▁머리를	-10046
▁면에서	-10047
▁무섭지	-10048
▁별하나	-10049
▁보기싫	-10050
▁불쾌한	-10051
▁수면제	-10052
▁슬퍼요	-10053
▁심오한	-10054
▁싶으면	-10055
▁아쉬울	-10056
▁안좋은	-10057
▁알게된	-10058
▁엉터리	-10059
▁역사적	-10060
▁영화제	-10061
▁웃음과	-10062
▁윌리엄	-10063
▁일어날	-10064
▁있어도	-10065
▁작품의	-10066
▁잼없음	-10067
▁정확히	-10068
▁주제는	-10069
▁쥬라기	-10070
▁차태현	-10071
▁찬사를	-10072
▁최악이	-10073
▁최초의	-10074
▁충격이	-10075
▁평점도	-10076
▁표현해	-10077
▁하던가	-10078
▁하지마	-10079
▁현실감	-10080
▁현실에	-10081
▁힘들게	-10082
거같네요	-10083
영화네요	-10084
하기까지	-10085
▁2004	-10086
▁9297	-10087
▁very	-10088
▁~~~~	-10089
▁가슴아픈	-10090
▁감성팔이	-10091
▁결말까지	-10092
▁과대평가	-10093
▁나오다니	-10094
▁답답해서	-10095
▁몰랐는데	-10096
▁볼만한데	-10097
▁슬프네요	-10098
▁쓰레기임	-10099
▁아니라서	-10100
▁어린아이	-10101
▁없었는데	-10102
▁영화감독	-10103
▁오글거리	-10104
▁인생영화	-10105
▁재미나게	-10106
▁재밌었고	-10107
▁졸작이다	-10108
▁주인공을	-10109
▁캐스팅도	-10110
▁퀄리티가	-10111
▁필요없음	-10112
▁필요하다	-10113
▁해주세요	-10114
잘봤습니다	-10115
▁드라마네요	-10116
▁스토리지만	-10117
▁안타깝네요	-10118
▁영화중에서	-10119
▁울었습니다	-10120
▁재미있어서	-10121
▁좋아하네요	-10122
▁지루하지않	-10123
▁개인적으로는	-10124
▁킬링타임용도	-10125
▁ᄍ	-10126
▁멕	-10127
▁싹	-10128
▁싼	-10129
▁썸	-10130
▁즉	-10131
▁쫒	-10132
▁콤	-10133
▁툭	-10134
▁혜	-10135
감상	-10136
강에	-10137
공부	-10138
권택	-10139
그녀	-10140
그때	-10141
낫다	-10142
리로	-10143
리칸	-10144
봣다	-10145
부한	-10146
비아	-10147
요미	-10148
웃긴	-10149
일으	-10150
잇고	-10151
자키	-10152
전달	-10153
절로	-10154
주제	-10155
중한	-10156
진희	-10157
초딩	-10158
크의	-10159
하리	-10160
함만	-10161
ion	-10162
▁it	-10163
▁가해	-10164
▁간직	-10165
▁경계	-10166
▁관대	-10167
▁괴로	-10168
▁그는	-10169
▁날려	-10170
▁너희	-10171
▁놓은	-10172
▁머가	-10173
▁밀어	-10174
▁바꾼	-10175
▁보아	-10176
▁볼것	-10177
▁불행	-10178
▁상실	-10179
▁성경	-10180
▁성찰	-10181
▁아끼	-10182
▁어딜	-10183
▁얻어	-10184
▁엽문	-10185
▁유혹	-10186
▁이뻐	-10187
▁이자	-10188
▁임청	-10189
▁잠수	-10190
▁잡는	-10191
▁저게	-10192
▁저지	-10193
▁중년	-10194
▁지배	-10195
▁찍을	-10196
▁친일	-10197
▁퀴어	-10198
▁해요	-10199
▁홧팅	-10200
곳에서	-10201
뭡니까	-10202
앞에서	-10203
이유가	-10204
있다는	-10205
작가님	-10206
주의를	-10207
줄거리	-10208
짜증나	-10209
창있네	-10210
티비로	-10211
하더니	-10212
히어로	-10213
▁117	-10214
▁135	-10215
▁152	-10216
▁193	-10217
▁250	-10218
▁378	-10219
▁438	-10220
▁478	-10221
▁558	-10222
▁616	-10223
▁676	-10224
▁695	-10225
▁909	-10226
▁고마운	-10227
▁공감을	-10228
▁과거를	-10229
▁관객들	-10230
▁구혜선	-10231
▁글쎄요	-10232
▁기승전	-10233
▁끝판왕	-10234
▁남는건	-10235
▁당연한	-10236
▁데뷔작	-10237
▁되어서	-10238
▁따라가	-10239
▁떨어진	-10240
▁레이첼	-10241
▁마스터	-10242
▁모성애	-10243
▁무서울	-10244
▁뭔가가	-10245
▁분명히	-10246
▁사기꾼	-10247
▁사람만	-10248
▁상당한	-10249
▁소재에	-10250
▁스릴이	-10251
▁시원한	-10252
▁싶지만	-10253
▁않아도	-10254
▁어떠한	-10255
▁인물들	-10256
▁일본이	-10257
▁임창정	-10258
▁있나요	-10259
▁장면과	-10260
▁재밋는	-10261
▁재밌당	-10262
▁정당화	-10263
▁짐캐리	-10264
▁집중도	-10265
▁참고로	-10266
▁추천해	-10267
▁타이틀	-10268
▁통쾌한	-10269
▁7517	-10270
▁9855	-10271
▁당시에는	-10272
▁대표적인	-10273
▁등장하는	-10274
▁만들었네	-10275
▁만화영화	-10276
▁말아먹은	-10277
▁메시지가	-10278
▁몇번이나	-10279
▁부끄러운	-10280
▁비교하면	-10281
▁사랑으로	-10282
▁상상력이	-10283
▁아니라는	-10284
▁아프리카	-10285
▁알겠지만	-10286
▁어렸을적	-10287
▁여기저기	-10288
▁원작소설	-10289
▁좋아하고	-10290
▁죽기전에	-10291
▁중반부터	-10292
▁코믹영화	-10293
▁한번쯤은	-10294
것같습니다	-10295
▁다세포소녀	-10296
▁다크나이트	-10297
▁볼만했는데	-10298
▁아름다웠다	-10299
▁영화라는게	-10300
▁일본영화는	-10301
▁처음이네요	-10302
▁애니메이션이	-10303
.^	-10304
><	-10305
ht	-10306
▁겹	-10307
▁꽉	-10308
▁떄	-10309
▁숭	-10310
▁엇	-10311
거는	-10312
걸작	-10313
군이	-10314
급을	-10315
기준	-10316
나무	-10317
나쁘	-10318
나타	-10319
났던	-10320
대전	-10321
리트	-10322
맹랑	-10323
뭔지	-10324
바리	-10325
보며	-10326
보셈	-10327
봤을	-10328
블루	-10329
상도	-10330
스도	-10331
어느	-10332
었죠	-10333
연애	-10334
영웅	-10335
예고	-10336
워라	-10337
저질	-10338
좋았	-10339
줘라	-10340
증을	-10341
쨋든	-10342
쳐도	-10343
치않	-10344
틀러	-10345
향이	-10346
형사	-10347
호의	-10348
est	-10349
ove	-10350
▁감옥	-10351
▁강조	-10352
▁골때	-10353
▁교회	-10354
▁구분	-10355
▁까는	-10356
▁나참	-10357
▁난생	-10358
▁남발	-10359
▁납치	-10360
▁넘는	-10361
▁되나	-10362
▁똥을	-10363
▁몸을	-10364
▁못살	-10365
▁못주	-10366
▁발레	-10367
▁보셈	-10368
▁부디	-10369
▁비하	-10370
▁서서	-10371
▁예산	-10372
▁오오	-10373
▁요약	-10374
▁우아	-10375
▁일탈	-10376
▁잘살	-10377
▁잡고	-10378
▁저러	-10379
▁전락	-10380
▁절반	-10381
▁점은	-10382
▁접근	-10383
▁짐승	-10384
▁차마	-10385
▁창의	-10386
▁총격	-10387
▁총알	-10388
▁최하	-10389
▁출현	-10390
▁토끼	-10391
▁피라	-10392
▁하자	-10393
▁허구	-10394
▁홍진	-10395
▁휴먼	-10396
거라고	-10397
당하는	-10398
도없는	-10399
때부터	-10400
리다가	-10401
볼만한	-10402
빠지는	-10403
스란히	-10404
스에서	-10405
시대를	-10406
앞으로	-10407
에서나	-10408
에서야	-10409
였으나	-10410
을수도	-10411
장면을	-10412
저예산	-10413
편으로	-10414
하나로	-10415
할정도	-10416
했다가	-10417
1010	-10418
▁125	-10419
▁144	-10420
▁173	-10421
▁247	-10422
▁334	-10423
▁358	-10424
▁491	-10425
▁528	-10426
▁596	-10427
▁641	-10428
▁721	-10429
▁766	-10430
▁822	-10431
▁가져다	-10432
▁개같은	-10433
▁공중파	-10434
▁끝난다	-10435
▁다큐를	-10436
▁대단히	-10437
▁대실망	-10438
▁더럽고	-10439
▁도중에	-10440
▁된다는	-10441
▁드림웍	-10442
▁똑바로	-10443
▁만나는	-10444
▁말이다	-10445
▁명성을	-10446
▁모르나	-10447
▁모자라	-10448
▁모티브	-10449
▁배경과	-10450
▁배경도	-10451
▁베드신	-10452
▁별기대	-10453
▁복수극	-10454
▁설정에	-10455
▁소지섭	-10456
▁송혜교	-10457
▁실패작	-10458
▁아닌지	-10459
▁안되나	-10460
▁않으면	-10461
▁엄마의	-10462
▁없구나	-10463
▁역할을	-10464
▁영화본	-10465
▁예쁘게	-10466
▁오인혜	-10467
▁외국인	-10468
▁울었던	-10469
▁원피스	-10470
▁있겠지	-10471
▁있으니	-10472
▁작품중	-10473
▁절제된	-10474
▁정도다	-10475
▁주제도	-10476
▁지나친	-10477
▁최대의	-10478
▁평점올	-10479
▁하던데	-10480
▁혼자서	-10481
▁훌륭함	-10482
▁흡입력	-10483
감동적이	-10484
기대하고	-10485
스럽네요	-10486
▁9914	-10487
▁남자라면	-10488
▁돋보인다	-10489
▁마음속에	-10490
▁먹먹하다	-10491
▁미스테리	-10492
▁보고싶어	-10493
▁분위기도	-10494
▁분위기에	-10495
▁슬프지만	-10496
▁아까워요	-10497
▁안타까움	-10498
▁안했는데	-10499
▁영상미는	-10500
▁예술영화	-10501
▁인종차별	-10502
▁정신나간	-10503
▁주연배우	-10504
▁철학적인	-10505
▁캐릭터와	-10506
▁10003	-10507
▁10005	-10508
▁10077	-10509
▁고맙습니다	-10510
▁매력적이다	-10511
▁오글거리고	-10512
▁존경합니다	-10513
▁초등학교때	-10514
,,,,,,,,	-10515
1,	-10516
ve	-10517
▁값	-10518
▁맷	-10519
▁밍	-10520
★★	-10521
가자	-10522
겨울	-10523
괴담	-10524
그게	-10525
글자	-10526
남주	-10527
달아	-10528
라지	-10529
마냥	-10530
매우	-10531
명화	-10532
못보	-10533
미니	-10534
민아	-10535
버전	-10536
별루	-10537
보라	-10538
볼까	-10539
상실	-10540
생이	-10541
슬퍼	-10542
신분	-10543
싱턴	-10544
어설	-10545
언이	-10546
여야	-10547
역을	-10548
완벽	-10549
왜곡	-10550
이번	-10551
입고	-10552
저링	-10553
졌네	-10554
책임	-10555
크가	-10556
터짐	-10557
통에	-10558
플렉	-10559
..;	-10560
▁bb	-10561
▁같네	-10562
▁거냐	-10563
▁고딩	-10564
▁그대	-10565
▁극한	-10566
▁김영	-10567
▁나니	-10568
▁나비	-10569
▁내놓	-10570
▁높네	-10571
▁뉴욕	-10572
▁느슨	-10573
▁때도	-10574
▁뚝뚝	-10575
▁맘이	-10576
▁매혹	-10577
▁몸이	-10578
▁믿는	-10579
▁믿지	-10580
▁백배	-10581
▁불면	-10582
▁비롯	-10583
▁비싼	-10584
▁비중	-10585
▁빠지	-10586
▁색감	-10587
▁시사	-10588
▁쓰지	-10589
▁어벤	-10590
▁없군	-10591
▁엉덩	-10592
▁예쁨	-10593
▁우스	-10594
▁웃게	-10595
▁이범	-10596
▁이영	-10597
▁이외	-10598
▁이태	-10599
▁일생	-10600
▁읽은	-10601
▁잘함	-10602
▁정리	-10603
▁정이	-10604
▁주먹	-10605
▁죽일	-10606
▁짧게	-10607
▁짱임	-10608
▁찍지	-10609
▁찾을	-10610
▁최후	-10611
▁쿵푸	-10612
▁크로	-10613
▁클린	-10614
▁틈이	-10615
▁파이	-10616
▁팍팍	-10617
▁할배	-10618
▁혁명	-10619
▁흐뭇	-10620
가는게	-10621
모습이	-10622
번이나	-10623
볼려고	-10624
부분에	-10625
슬프다	-10626
앗는데	-10627
으라고	-10628
음악도	-10629
이기에	-10630
이유는	-10631
이정도	-10632
인간의	-10633
일리언	-10634
재미는	-10635
졌지만	-10636
좋아서	-10637
하군요	-10638
하였다	-10639
한건가	-10640
▁103	-10641
▁108	-10642
▁155	-10643
▁275	-10644
▁277	-10645
▁315	-10646
▁317	-10647
▁338	-10648
▁388	-10649
▁571	-10650
▁581	-10651
▁671	-10652
▁711	-10653
▁824	-10654
▁???	-10655
▁The	-10656
▁갔는데	-10657
▁것들을	-10658
▁구성과	-10659
▁기대에	-10660
▁나은듯	-10661
▁넘어선	-10662
▁노래를	-10663
▁노력이	-10664
▁뜨거운	-10665
▁마음의	-10666
▁망쳐놓	-10667
▁머리에	-10668
▁못하겠	-10669
▁반전의	-10670
▁복잡한	-10671
▁부족함	-10672
▁사라진	-10673
▁사랑도	-10674
▁사실이	-10675
▁송지효	-10676
▁신경쓰	-10677
▁아닌것	-10678
▁아쉽고	-10679
▁아이와	-10680
▁아침에	-10681
▁않았음	-10682
▁알려준	-10683
▁애니가	-10684
▁액션에	-10685
▁어둡고	-10686
▁용두사	-10687
▁원숭이	-10688
▁이번에	-10689
▁이쁘게	-10690
▁이상함	-10691
▁이해못	-10692
▁이후에	-10693
▁자유를	-10694
▁전부다	-10695
▁전쟁을	-10696
▁전편의	-10697
▁즐겁고	-10698
▁취향이	-10699
▁코드가	-10700
▁팀버튼	-10701
▁행복을	-10702
▁흐름이	-10703
되는영화	-10704
렸습니다	-10705
보고나서	-10706
영화지만	-10707
을정도로	-10708
▁2010	-10709
▁9307	-10710
▁다음으로	-10711
▁다이하드	-10712
▁되었는데	-10713
▁멋진영화	-10714
▁메시지를	-10715
▁멜로영화	-10716
▁미야자키	-10717
▁받아들이	-10718
▁볼만해요	-10719
▁부분에서	-10720
▁아이러니	-10721
▁예고편만	-10722
▁인간적인	-10723
▁작품이라	-10724
▁재밌게본	-10725
▁중학교때	-10726
▁지루하네	-10727
▁힘내세요	-10728
▁10007	-10729
▁10024	-10730
▁10274	-10731
▁뮤직비디오	-10732
▁보고싶어요	-10733
▁사실적으로	-10734
▁영화에서는	-10735
▁지루하기만	-10736
▁현실적으로	-10737
▁너무재밌어요	-10738
▁잔잔하면서도	-10739
▁최고였습니다	-10740
▁ᅩ	-10741
▁♡	-10742
▁갇	-10743
▁곁	-10744
▁덧	-10745
▁롱	-10746
▁묶	-10747
▁빚	-10748
▁켄	-10749
▁훌	-10750
가진	-10751
거림	-10752
겠냐	-10753
국의	-10754
국이	-10755
군의	-10756
남길	-10757
내려	-10758
누군	-10759
눈이	-10760
도와	-10761
들리	-10762
등등	-10763
때가	-10764
라나	-10765
라를	-10766
라마	-10767
러움	-10768
리타	-10769
마는	-10770
맛이	-10771
박이	-10772
보길	-10773
봤지	-10774
부턴	-10775
불륜	-10776
서린	-10777
세이	-10778
수고	-10779
시죠	-10780
씨를	-10781
아버	-10782
았어	-10783
역의	-10784
열자	-10785
음에	-10786
점짜	-10787
중독	-10788
챙겨	-10789
추고	-10790
틈이	-10791
피아	-10792
해석	-10793
효진	-10794
.10	-10795
▁가상	-10796
▁강호	-10797
▁같지	-10798
▁곱씹	-10799
▁구멍	-10800
▁구역	-10801
▁군인	-10802
▁글로	-10803
▁기념	-10804
▁김강	-10805
▁냉정	-10806
▁단언	-10807
▁도입	-10808
▁돈도	-10809
▁또는	-10810
▁무관	-10811
▁미니	-10812
▁미키	-10813
▁발상	-10814
▁버전	-10815
▁변호	-10816
▁분이	-10817
▁빠짐	-10818
▁뻔뻔	-10819
▁뻔히	-10820
▁섞어	-10821
▁속은	-10822
▁신념	-10823
▁심히	-10824
▁십점	-10825
▁싶었	-10826
▁어떻	-10827
▁여왕	-10828
▁열자	-10829
▁예뻐	-10830
▁운명	-10831
▁은은	-10832
▁은퇴	-10833
▁의학	-10834
▁이겨	-10835
▁이혼	-10836
▁임신	-10837
▁장미	-10838
▁저거	-10839
▁조심	-10840
▁조정	-10841
▁조조	-10842
▁죽기	-10843
▁증명	-10844
▁지적	-10845
▁짱이	-10846
▁쪽팔	-10847
▁찜찜	-10848
▁차별	-10849
▁찰리	-10850
▁추락	-10851
▁타락	-10852
▁티가	-10853
▁하셨	-10854
▁헷갈	-10855
▁활용	-10856
▁히로	-10857
거에요	-10858
겠는가	-10859
그런가	-10860
그렇고	-10861
기억에	-10862
냅니다	-10863
됐는데	-10864
라노말	-10865
멋대로	-10866
발이고	-10867
봤으면	-10868
아깝네	-10869
어머니	-10870
없다고	-10871
지루한	-10872
편인데	-10873
한건지	-10874
해졌다	-10875
ᅮᅮᅮᅮ	-10876
▁,,,	-10877
▁205	-10878
▁230	-10879
▁294	-10880
▁368	-10881
▁7.5	-10882
▁749	-10883
▁859	-10884
▁강동원	-10885
▁검색해	-10886
▁결말에	-10887
▁구성은	-10888
▁그들은	-10889
▁기대도	-10890
▁나왔음	-10891
▁낚였네	-10892
▁넘어가	-10893
▁무엇이	-10894
▁뭔가요	-10895
▁범인이	-10896
▁별루다	-10897
▁별점을	-10898
▁부럽다	-10899
▁부분을	-10900
▁불후의	-10901
▁산만한	-10902
▁성우가	-10903
▁솔직한	-10904
▁신세경	-10905
▁심리를	-10906
▁안되서	-10907
▁액션물	-10908
▁양동근	-10909
▁엄마랑	-10910
▁없는듯	-10911
▁없었고	-10912
▁에로물	-10913
▁웃음만	-10914
▁유지태	-10915
▁이스트	-10916
▁이유로	-10917
▁인물의	-10918
▁인터뷰	-10919
▁일베충	-10920
▁임권택	-10921
▁장면만	-10922
▁제목과	-10923
▁주상욱	-10924
▁주제에	-10925
▁채널돌	-10926
▁충격을	-10927
▁클리셰	-10928
▁태어난	-10929
▁한숨만	-10930
▁흑역사	-10931
기만하고	-10932
다시봐도	-10933
배속으로	-10934
이영화는	-10935
장면에서	-10936
점대라니	-10937
점정도가	-10938
할정도로	-10939
▁9293	-10940
▁9994	-10941
▁감독님의	-10942
▁강력추천	-10943
▁고스란히	-10944
▁그럼에도	-10945
▁그지같은	-10946
▁나온다고	-10947
▁너무좋아	-10948
▁막장으로	-10949
▁만들려고	-10950
▁모르겟다	-10951
▁보이지만	-10952
▁봐야한다	-10953
▁아카데미	-10954
▁알게해준	-10955
▁어린이용	-10956
▁없었으면	-10957
▁연기까지	-10958
▁영화계의	-10959
▁영화들은	-10960
▁영화라면	-10961
▁예고편이	-10962
▁움직이는	-10963
▁이야기도	-10964
▁이정도로	-10965
▁잃어버린	-10966
▁자본주의	-10967
▁잘생기고	-10968
▁재미있네	-10969
▁좋아하지	-10970
▁좋아해요	-10971
▁중간부터	-10972
▁허무하게	-10973
▁흥미롭고	-10974
..."""	-10975
▁10114	-10976
▁10218	-10977
▁10247	-10978
▁것만으로도	-10979
▁공포영화는	-10980
▁서프라이즈	-10981
▁어이없어서	-10982
▁재미있다고	-10983
▁재미있었고	-10984
▁좋아한다면	-10985
▁......	-10986
▁ᄏᄏᄏᄏᄏᄏᄏᄏᄏᄏᄏ	-10987
dd	-10988
if	-10989
▁낸	-10990
▁넋	-10991
▁놔	-10992
▁델	-10993
▁뚫	-10994
▁뚱	-10995
▁며	-10996
▁멸	-10997
▁빗	-10998
▁셀	-10999
▁칸	-11000
▁캠	-11001
▁캡	-11002
▁홈	-11003
가니	-11004
간지	-11005
그의	-11006
내기	-11007
능한	-11008
달까	-11009
대도	-11010
덜덜	-11011
데로	-11012
맞은	-11013
맹이	-11014
먼저	-11015
미래	-11016
부러	-11017
비홍	-11018
빨고	-11019
수로	-11020
스티	-11021
스페	-11022
시를	-11023
어는	-11024
유쾌	-11025
이긴	-11026
이젠	-11027
일세	-11028
재가	-11029
치면	-11030
카이	-11031
홍보	-11032
흐름	-11033
!^^	-11034
hat	-11035
ore	-11036
▁가관	-11037
▁경우	-11038
▁경제	-11039
▁고찰	-11040
▁국제	-11041
▁권력	-11042
▁기차	-11043
▁김재	-11044
▁김현	-11045
▁나누	-11046
▁나뿐	-11047
▁나아	-11048
▁넘은	-11049
▁노동	-11050
▁논리	-11051
▁닥터	-11052
▁달고	-11053
▁덕에	-11054
▁도통	-11055
▁되도	-11056
▁두말	-11057
▁들여	-11058
▁똑똑	-11059
▁말라	-11060
▁멀리	-11061
▁모야	-11062
▁물건	-11063
▁물고	-11064
▁물씬	-11065
▁박해	-11066
▁보소	-11067
▁복선	-11068
▁싸울	-11069
▁쏘우	-11070
▁쓰렉	-11071
▁안남	-11072
▁알렉	-11073
▁알지	-11074
▁어떡	-11075
▁에너	-11076
▁여튼	-11077
▁우익	-11078
▁운동	-11079
▁웹툰	-11080
▁위에	-11081
▁이경	-11082
▁이완	-11083
▁읽는	-11084
▁저주	-11085
▁정화	-11086
▁존내	-11087
▁주목	-11088
▁증말	-11089
▁천만	-11090
▁캐리	-11091
▁큐브	-11092
▁특징	-11093
▁퍼즐	-11094
▁펭귄	-11095
▁푸른	-11096
▁하던	-11097
▁한개	-11098
는거다	-11099
당하고	-11100
들보다	-11101
로서의	-11102
모습을	-11103
봤다가	-11104
성탈출	-11105
아쉽다	-11106
아이돌	-11107
안타까	-11108
에게도	-11109
연기잘	-11110
영화냐	-11111
왔으면	-11112
웃기고	-11113
음악이	-11114
파서블	-11115
편부터	-11116
한것도	-11117
할려고	-11118
합시다	-11119
해야할	-11120
했더니	-11121
▁206	-11122
▁208	-11123
▁215	-11124
▁218	-11125
▁270	-11126
▁287	-11127
▁318	-11128
▁345	-11129
▁621	-11130
▁646	-11131
▁706	-11132
▁846	-11133
▁916	-11134
▁ebs	-11135
▁~~~	-11136
▁가끔씩	-11137
▁가치를	-11138
▁감흥이	-11139
▁강지환	-11140
▁개소리	-11141
▁개인의	-11142
▁그만좀	-11143
▁기억도	-11144
▁꿈꾸는	-11145
▁나가는	-11146
▁나름의	-11147
▁낚이지	-11148
▁누구도	-11149
▁더럽다	-11150
▁돌아오	-11151
▁많지만	-11152
▁말하면	-11153
▁말할수	-11154
▁먹먹한	-11155
▁받아서	-11156
▁베트남	-11157
▁비교가	-11158
▁뻔해서	-11159
▁상상을	-11160
▁상영관	-11161
▁서스펜	-11162
▁선택한	-11163
▁수준은	-11164
▁아니냐	-11165
▁얘기가	-11166
▁이상을	-11167
▁일요일	-11168
▁있는듯	-11169
▁장난감	-11170
▁전작의	-11171
▁정신을	-11172
▁정신차	-11173
▁조용히	-11174
▁죽는다	-11175
▁차이가	-11176
▁초능력	-11177
▁초반부	-11178
▁취향은	-11179
▁클라이	-11180
▁태어나	-11181
▁풀어나	-11182
▁하려는	-11183
▁할수있	-11184
▁현실의	-11185
▁후회함	-11186
남기는데	-11187
부분에서	-11188
스러워서	-11189
시간낭비	-11190
영화였다	-11191
재미없는	-11192
적이지만	-11193
좋았어요	-11194
하겠지만	-11195
▁9995	-11196
▁관객에게	-11197
▁그런영화	-11198
▁깔끔하고	-11199
▁너무한다	-11200
▁다른영화	-11201
▁때문이다	-11202
▁말았어야	-11203
▁말해주는	-11204
▁무서워서	-11205
▁배우분들	-11206
▁보고있는	-11207
▁사람들도	-11208
▁스릴러가	-11209
▁스릴러를	-11210
▁신데렐라	-11211
▁않았으면	-11212
▁알았더니	-11213
▁어마어마	-11214
▁어우러진	-11215
▁여배우들	-11216
▁이연걸의	-11217
▁이해가안	-11218
▁지났지만	-11219
▁지들끼리	-11220
▁짜증나네	-11221
▁최고라는	-11222
▁코미디가	-11223
▁허무맹랑	-11224
▁허술하고	-11225
▁허접하다	-11226
▁훌륭하고	-11227
▁히어로물	-11228
▁10127	-11229
▁감동도없고	-11230
▁감동적으로	-11231
▁보고있어요	-11232
▁생각나네요	-11233
▁시간아까워	-11234
▁시나리오를	-11235
▁영화자체는	-11236
▁일깨워주는	-11237
▁재미있었던	-11238
▁지금까지도	-11239
▁지루했어요	-11240
▁최고였어요	-11241
!!!!!!!!!	-11242
->	-11243
▁규	-11244
▁긍	-11245
▁깝	-11246
▁몫	-11247
▁쏙	-11248
겟네	-11249
겠나	-11250
과정	-11251
구석	-11252
국민	-11253
까봐	-11254
꺼다	-11255
날이	-11256
남은	-11257
녀가	-11258
높아	-11259
대중	-11260
도다	-11261
디션	-11262
러브	-11263
마트	-11264
많다	-11265
맞춘	-11266
바다	-11267
바른	-11268
볼일	-11269
블랙	-11270
비스	-11271
사나	-11272
쓴다	-11273
아닐	-11274
안의	-11275
엿다	-11276
예능	-11277
우니	-11278
위로	-11279
일라	-11280
작에	-11281
점만	-11282
질수	-11283
체를	-11284
쳤던	-11285
트리	-11286
판은	-11287
하단	-11288
희씨	-11289
..,	-11290
▁ᄅᄋ	-11291
▁간첩	-11292
▁건데	-11293
▁기쁨	-11294
▁길고	-11295
▁다케	-11296
▁더럽	-11297
▁데려	-11298
▁딱딱	-11299
▁마을	-11300
▁멈추	-11301
▁멘붕	-11302
▁모여	-11303
▁밀라	-11304
▁배려	-11305
▁보진	-11306
▁부를	-11307
▁삼가	-11308
▁삽입	-11309
▁생략	-11310
▁속도	-11311
▁수백	-11312
▁식스	-11313
▁씨네	-11314
▁안봐	-11315
▁역쉬	-11316
▁열린	-11317
▁옛다	-11318
▁온몸	-11319
▁우습	-11320
▁원표	-11321
▁인데	-11322
▁재료	-11323
▁잼씀	-11324
▁저희	-11325
▁주옥	-11326
▁쩌네	-11327
▁찾고	-11328
▁철저	-11329
▁초기	-11330
▁치는	-11331
감동이	-11332
거든요	-11333
거리고	-11334
그것도	-11335
그자체	-11336
급으로	-11337
기보다	-11338
는거임	-11339
로맨스	-11340
마음에	-11341
만든다	-11342
맞추기	-11343
머니즘	-11344
버린다	-11345
볼수있	-11346
수준의	-11347
아줌마	-11348
액션이	-11349
었어도	-11350
으려는	-11351
이나오	-11352
있었던	-11353
진정한	-11354
하는가	-11355
하라는	-11356
하잖아	-11357
▁234	-11358
▁238	-11359
▁302	-11360
▁340	-11361
▁391	-11362
▁422	-11363
▁441	-11364
▁472	-11365
▁519	-11366
▁546	-11367
▁576	-11368
▁738	-11369
▁776	-11370
▁8.5	-11371
▁ocn	-11372
▁과정을	-11373
▁괜찮네	-11374
▁권상우	-11375
▁그때의	-11376
▁그레이	-11377
▁기대는	-11378
▁기억될	-11379
▁기회가	-11380
▁김혜수	-11381
▁나온거	-11382
▁돈아까	-11383
▁드니로	-11384
▁따뜻해	-11385
▁만화는	-11386
▁매트릭	-11387
▁모자란	-11388
▁방법이	-11389
▁배우만	-11390
▁보느니	-11391
▁보는듯	-11392
▁복수를	-11393
▁봐줄만	-11394
▁부르는	-11395
▁새롭게	-11396
▁설경구	-11397
▁세계관	-11398
▁스티브	-11399
▁아동용	-11400
▁않았고	-11401
▁오늘도	-11402
▁오로라	-11403
▁요소를	-11404
▁웃겼음	-11405
▁잘표현	-11406
▁재밌지	-11407
▁재발견	-11408
▁저절로	-11409
▁전세계	-11410
▁조금씩	-11411
▁죽을때	-11412
▁죽인다	-11413
▁징그러	-11414
▁청춘의	-11415
▁치고는	-11416
▁컨저링	-11417
▁클린트	-11418
▁하고싶	-11419
▁하는건	-11420
▁하이킥	-11421
▁한건지	-11422
▁희망이	-11423
긴했지만	-11424
들에게는	-11425
하는건지	-11426
.."""	-11427
...!!	-11428
▁2001	-11429
▁6723	-11430
▁9803	-11431
▁9877	-11432
▁http	-11433
▁공감가는	-11434
▁기대되는	-11435
▁내러티브	-11436
▁대사들이	-11437
▁돈아깝다	-11438
▁만들어졌	-11439
▁무언가를	-11440
▁미스터리	-11441
▁별로였음	-11442
▁별한개도	-11443
▁보기에도	-11444
▁보냅니다	-11445
▁불러일으	-11446
▁빠져드는	-11447
▁생각해서	-11448
▁스케일이	-11449
▁시선으로	-11450
▁아닌가요	-11451
▁안되는데	-11452
▁어른들이	-11453
▁어쩌라고	-11454
▁없는영화	-11455
▁오리지널	-11456
▁우리들의	-11457
▁인디아나	-11458
▁장난아니	-11459
▁조기종영	-11460
▁진짜진짜	-11461
▁해도해도	-11462
▁현실성이	-11463
▁화려하고	-11464
보았습니다	-11465
영화관에서	-11466
...;;;	-11467
▁10004	-11468
▁10080	-11469
▁기대됩니다	-11470
▁모르겠는데	-11471
▁비현실적인	-11472
▁시나리오에	-11473
▁파워레인저	-11474
▁만들어주세요	-11475
ᄏᄏᄏᄏᄏᄏᄏᄏᄏᄏ	-11476
ne	-11477
og	-11478
▁Y	-11479
▁]	-11480
▁`	-11481
▁ᅵ	-11482
▁꾹	-11483
▁끓	-11484
▁훼	-11485
개로	-11486
거니	-11487
것다	-11488
고은	-11489
관련	-11490
교육	-11491
근석	-11492
금을	-11493
나만	-11494
나왓	-11495
놨다	-11496
드네	-11497
드러	-11498
드문	-11499
론이	-11500
롯데	-11501
리쉬	-11502
만세	-11503
몰랐	-11504
무니	-11505
미녀	-11506
바가	-11507
보임	-11508
본거	-11509
본게	-11510
부림	-11511
부탁	-11512
뿐만	-11513
사극	-11514
선수	-11515
성공	-11516
소를	-11517
아마	-11518
엉성	-11519
영씨	-11520
우면	-11521
월드	-11522
을뿐	-11523
이한	-11524
잼있	-11525
전히	-11526
점점	-11527
정서	-11528
조위	-11529
타령	-11530
틱한	-11531
해줄	-11532
화는	-11533
회의	-11534
훨씬	-11535
히게	-11536
OST	-11537
ᄍᄍᄍ	-11538
▁sh	-11539
▁거울	-11540
▁거창	-11541
▁검은	-11542
▁계획	-11543
▁고발	-11544
▁공존	-11545
▁구라	-11546
▁김소	-11547
▁김정	-11548
▁꺼내	-11549
▁날라	-11550
▁낮음	-11551
▁노예	-11552
▁놈들	-11553
▁높이	-11554
▁눈과	-11555
▁다리	-11556
▁당최	-11557
▁동료	-11558
▁될수	-11559
▁두명	-11560
▁로보	-11561
▁마초	-11562
▁말만	-11563
▁말에	-11564
▁맛깔	-11565
▁맞춘	-11566
▁몇개	-11567
▁무얼	-11568
▁묻혀	-11569
▁믿어	-11570
▁변신	-11571
▁부조	-11572
▁불친	-11573
▁빅뱅	-11574
▁빛이	-11575
▁빼앗	-11576
▁뿐만	-11577
▁사토	-11578
▁생기	-11579
▁섭외	-11580
▁스무	-11581
▁스콧	-11582
▁악플	-11583
▁약한	-11584
▁엉엉	-11585
▁예매	-11586
▁예의	-11587
▁울게	-11588
▁울어	-11589
▁웃길	-11590
▁이라	-11591
▁이재	-11592
▁잃고	-11593
▁저기	-11594
▁저렴	-11595
▁저리	-11596
▁정재	-11597
▁종영	-11598
▁증거	-11599
▁차분	-11600
▁창조	-11601
▁총을	-11602
▁충무	-11603
▁토니	-11604
▁패턴	-11605
▁하냐	-11606
▁한테	-11607
▁향해	-11608
▁호소	-11609
가는데	-11610
가슴이	-11611
같은거	-11612
기라도	-11613
놈들은	-11614
놈들이	-11615
느와르	-11616
랬는데	-11617
로서는	-11618
만큼의	-11619
모르는	-11620
별로다	-11621
봤더니	-11622
분위기	-11623
수준이	-11624
영화네	-11625
오르는	-11626
위원회	-11627
이쁘고	-11628
인으로	-11629
하구나	-11630
하느라	-11631
하려면	-11632
해놓고	-11633
했어도	-11634
6555	-11635
9999	-11636
▁122	-11637
▁158	-11638
▁248	-11639
▁386	-11640
▁426	-11641
▁591	-11642
▁669	-11643
▁716	-11644
▁831	-11645
▁KBS	-11646
▁각자의	-11647
▁강아지	-11648
▁겁니다	-11649
▁괜찮아	-11650
▁구역질	-11651
▁깜짝놀	-11652
▁남긴다	-11653
▁남았다	-11654
▁남주가	-11655
▁느리고	-11656
▁더빙은	-11657
▁던지는	-11658
▁됐는데	-11659
▁리뷰를	-11660
▁만점을	-11661
▁많네요	-11662
▁많았던	-11663
▁묘하게	-11664
▁무서웠	-11665
▁별로인	-11666
▁봤었다	-11667
▁비정상	-11668
▁사라져	-11669
▁생각한	-11670
▁성룡이	-11671
▁세상은	-11672
▁속아서	-11673
▁수작이	-11674
▁슬래셔	-11675
▁시절의	-11676
▁신나게	-11677
▁아니죠	-11678
▁아프고	-11679
▁않는데	-11680
▁어찌나	-11681
▁열정이	-11682
▁영화판	-11683
▁오타쿠	-11684
▁와닿는	-11685
▁왜이런	-11686
▁웃어야	-11687
▁유머가	-11688
▁이거는	-11689
▁이건좀	-11690
▁이번엔	-11691
▁이상도	-11692
▁인물이	-11693
▁있는게	-11694
▁자세히	-11695
▁잘하네	-11696
▁잘해서	-11697
▁장나라	-11698
▁장면의	-11699
▁재평가	-11700
▁저급한	-11701
▁적절히	-11702
▁전성기	-11703
▁전작에	-11704
▁졸면서	-11705
▁지금껏	-11706
▁지나서	-11707
▁채플린	-11708
▁처음임	-11709
▁철학적	-11710
▁케이트	-11711
▁클라라	-11712
▁하려고	-11713
▁한국어	-11714
감동적인	-11715
말이필요	-11716
봤었는데	-11717
수가없다	-11718
이라고는	-11719
하시네요	-11720
▁9665	-11721
▁9790	-11722
▁9847	-11723
▁9985	-11724
▁관람불가	-11725
▁그들만의	-11726
▁극장판은	-11727
▁기분좋게	-11728
▁나왔는데	-11729
▁내용으로	-11730
▁두근두근	-11731
▁만드네요	-11732
▁매력있는	-11733
▁멋있어요	-11734
▁메세지는	-11735
▁모든것을	-11736
▁몽환적인	-11737
▁묻어나는	-11738
▁미치도록	-11739
▁보다보다	-11740
▁볼만했음	-11741
▁뻔하지만	-11742
▁상영관이	-11743
▁생각하며	-11744
▁수준이하	-11745
▁심심해서	-11746
▁아까웠던	-11747
▁안타깝고	-11748
▁않았을까	-11749
▁알수없는	-11750
▁억지설정	-11751
▁없다는게	-11752
▁엉성하다	-11753
▁에일리언	-11754
▁영상으로	-11755
▁영화관에	-11756
▁이건진짜	-11757
▁인터스텔	-11758
▁있었다니	-11759
▁작위적인	-11760
▁재밌기만	-11761
▁표현했다	-11762
▁현실이다	-11763
▁혹성탈출	-11764
감사합니다	-11765
▁10118	-11766
▁10155	-11767
▁10250	-11768
▁10260	-11769
▁감정이입이	-11770
▁네이버평점	-11771
▁느낌이랄까	-11772
▁아침드라마	-11773
▁우리나라는	-11774
▁잘만들어진	-11775
▁재밌게봤다	-11776
▁ᄏᄏᄏᄏᄏᄏᄏᄏᄏᄏ	-11777
ap	-11778
▁뜯	-11779
▁맺	-11780
▁쉐	-11781
▁혀	-11782
가치	-11783
게이	-11784
괜히	-11785
기업	-11786
꺼라	-11787
넣은	-11788
높다	-11789
님과	-11790
데터	-11791
독립	-11792
동네	-11793
되네	-11794
디젤	-11795
따름	-11796
란이	-11797
맞음	-11798
모가	-11799
모니	-11800
반복	-11801
방법	-11802
방의	-11803
보비	-11804
보잡	-11805
봣음	-11806
분만	-11807
분명	-11808
브라	-11809
선의	-11810
센트	-11811
소나	-11812
슈퍼	-11813
심은	-11814
씨와	-11815
어난	-11816
연한	-11817
엿음	-11818
올때	-11819
용도	-11820
유혼	-11821
은혜	-11822
음의	-11823
이쁨	-11824
인권	-11825
인상	-11826
인척	-11827
점줄	-11828
존재	-11829
주를	-11830
지식	-11831
짜는	-11832
치네	-11833
칼렛	-11834
키스	-11835
타클	-11836
피는	-11837
피를	-11838
해짐	-11839
해피	-11840
ill	-11841
▁//	-11842
▁me	-11843
▁so	-11844
▁가시	-11845
▁가자	-11846
▁개독	-11847
▁개발	-11848
▁결합	-11849
▁과잉	-11850
▁끝냈	-11851
▁난국	-11852
▁남매	-11853
▁내겐	-11854
▁느린	-11855
▁대비	-11856
▁대책	-11857
▁데미	-11858
▁둘의	-11859
▁로렌	-11860
▁마마	-11861
▁맛에	-11862
▁멤버	-11863
▁무기	-11864
▁뭔데	-11865
▁미개	-11866
▁버금	-11867
▁버리	-11868
▁보나	-11869
▁봐주	-11870
▁사전	-11871
▁샤를	-11872
▁쏠쏠	-11873
▁아가	-11874
▁안젤	-11875
▁연장	-11876
▁오토	-11877
▁유부	-11878
▁이선	-11879
▁저녁	-11880
▁조여	-11881
▁지니	-11882
▁지어	-11883
▁직장	-11884
▁진솔	-11885
▁찢어	-11886
▁차지	-11887
▁천사	-11888
▁첨에	-11889
▁최저	-11890
▁치열	-11891
▁한수	-11892
▁했을	-11893
▁환불	-11894
▁후한	-11895
▁훈남	-11896
▁흑흑	-11897
가능한	-11898
곱니다	-11899
낮아서	-11900
렸어요	-11901
만드네	-11902
만들고	-11903
묘하게	-11904
보느니	-11905
보다니	-11906
액션은	-11907
었을때	-11908
연기에	-11909
였다고	-11910
왔어요	-11911
이건뭐	-11912
이라곤	-11913
점준거	-11914
졌네요	-11915
주는게	-11916
하겠지	-11917
..,,	-11918
..??	-11919
1000	-11920
1997	-11921
9555	-11922
▁130	-11923
▁142	-11924
▁174	-11925
▁175	-11926
▁252	-11927
▁258	-11928
▁332	-11929
▁381	-11930
▁589	-11931
▁606	-11932
▁681	-11933
▁696	-11934
▁736	-11935
▁가르쳐	-11936
▁가볍고	-11937
▁것인지	-11938
▁계기가	-11939
▁과도한	-11940
▁기분만	-11941
▁나오게	-11942
▁남자와	-11943
▁놈들은	-11944
▁눈물흘	-11945
▁다른거	-11946
▁담아낸	-11947
▁대박이	-11948
▁대표작	-11949
▁또보고	-11950
▁러브라	-11951
▁런닝맨	-11952
▁마누라	-11953
▁마케팅	-11954
▁만나고	-11955
▁만나서	-11956
▁만드나	-11957
▁말아라	-11958
▁말이지	-11959
▁맙시다	-11960
▁모습과	-11961
▁못보고	-11962
▁못생긴	-11963
▁미국이	-11964
▁미소를	-11965
▁미안해	-11966
▁배급사	-11967
▁보기전	-11968
▁보는줄	-11969
▁봤었던	-11970
▁분노가	-11971
▁불쌍해	-11972
▁비교해	-11973
▁사다코	-11974
▁사회에	-11975
▁생각에	-11976
▁서로를	-11977
▁소리지	-11978
▁스칼렛	-11979
▁스텝업	-11980
▁슬퍼서	-11981
▁시작은	-11982
▁식으로	-11983
▁쌩뚱맞	-11984
▁아이의	-11985
▁않았나	-11986
▁어딘가	-11987
▁어설픔	-11988
▁어울리	-11989
▁없을까	-11990
▁여주의	-11991
▁연출의	-11992
▁영화평	-11993
▁예상치	-11994
▁와닿지	-11995
▁웃기네	-11996
▁웃기지	-11997
▁웬만한	-11998
▁위하여	-11999
▁위험한	-12000
▁음악에	-12001
▁이름값	-12002
▁이연희	-12003
▁잔혹한	-12004
▁잘나가	-12005
▁장르는	-12006
▁저것도	-12007
▁제작된	-12008
▁지겨워	-12009
▁찝찝한	-12010
▁첨이네	-12011
▁최초로	-12012
▁친구들	-12013
▁편집이	-12014
▁한계가	-12015
▁한없이	-12016
▁해놓고	-12017
▁화면이	-12018
▁환타지	-12019
라는건지	-12020
리의리의	-12021
볼수있는	-12022
스럽지만	-12023
우면서도	-12024
재미없고	-12025
적이지도	-12026
점입니다	-12027
▁9155	-12028
▁9283	-12029
▁9335	-12030
▁9607	-12031
▁9615	-12032
▁9650	-12033
▁9798	-12034
▁9818	-12035
▁9823	-12036
▁9833	-12037
▁거부감이	-12038
▁군대에서	-12039
▁그래픽이	-12040
▁깔끔하게	-12041
▁나발이고	-12042
▁나오는지	-12043
▁남자들이	-12044
▁너무재밌	-12045
▁따뜻하게	-12046
▁러브라인	-12047
▁만들어준	-12048
▁메세지도	-12049
▁무서웠다	-12050
▁무척이나	-12051
▁별반개도	-12052
▁보면서도	-12053
▁봐야겠다	-12054
▁분위기와	-12055
▁사람으로	-12056
▁사무라이	-12057
▁사이에서	-12058
▁스릴있고	-12059
▁실화라니	-12060
▁아니겠지	-12061
▁여자들의	-12062
▁역사왜곡	-12063
▁영화로서	-12064
▁옛날영화	-12065
▁울었네요	-12066
▁이해하고	-12067
▁인간들이	-12068
▁있다는게	-12069
▁작품성은	-12070
▁재밌지도	-12071
▁적당하다	-12072
▁존재하는	-12073
▁좋아지는	-12074
▁팬이라면	-12075
▁포스터는	-12076
▁하는건지	-12077
▁헛웃음만	-12078
▁10244	-12079
▁공포영화를	-12080
▁러브스토리	-12081
▁실망스럽다	-12082
▁엑소시스트	-12083
▁응원합니다	-12084
▁지루하지만	-12085
▁크리스토퍼	-12086
▁한국영화가	-12087
▁재미없습니다	-12088
▁지루하지않고	-12089
▁감동적이었습니다	-12090
..............	-12091
0-	-12092
?'	-12093
@@	-12094
ld	-12095
~8	-12096
▁꽁	-12097
▁솜	-12098
▁쯤	-12099
▁퓨	-12100
▁횡	-12101
가수	-12102
걸이	-12103
교훈	-12104
구조	-12105
그린	-12106
근한	-12107
끌고	-12108
나를	-12109
낮지	-12110
너스	-12111
네용	-12112
네유	-12113
는뎅	-12114
도에	-12115
되길	-12116
등록	-12117
디로	-12118
때메	-12119
려라	-12120
로봇	-12121
마른	-12122
마치	-12123
명도	-12124
문이	-12125
바탕	-12126
베리	-12127
보일	-12128
부르	-12129
비교	-12130
비를	-12131
빼면	-12132
뻔함	-12133
셉션	-12134
속이	-12135
수님	-12136
스라	-12137
스토	-12138
슬픈	-12139
시티	-12140
연은	-12141
운이	-12142
인드	-12143
작을	-12144
장님	-12145
죽고	-12146
준이	-12147
차원	-12148
코가	-12149
태웅	-12150
하곤	-12151
하듯	-12152
한심	-12153
홀로	-12154
힌다	-12155
336	-12156
all	-12157
ent	-12158
ery	-12159
▁+1	-12160
▁3,	-12161
▁st	-12162
▁강제	-12163
▁강혜	-12164
▁건강	-12165
▁걸린	-12166
▁김동	-12167
▁김성	-12168
▁꿈이	-12169
▁나왓	-12170
▁날로	-12171
▁내는	-12172
▁너네	-12173
▁너는	-12174
▁넘기	-12175
▁넣은	-12176
▁뇌가	-12177
▁도덕	-12178
▁돌고	-12179
▁드리	-12180
▁라스	-12181
▁레즈	-12182
▁록키	-12183
▁맞게	-12184
▁머지	-12185
▁메가	-12186
▁못했	-12187
▁박지	-12188
▁벌어	-12189
▁볼줄	-12190
▁붉은	-12191
▁비유	-12192
▁상투	-12193
▁소림	-12194
▁소방	-12195
▁속의	-12196
▁시기	-12197
▁시스	-12198
▁식의	-12199
▁싫은	-12200
▁심어	-12201
▁씨발	-12202
▁어딨	-12203
▁오만	-12204
▁오싹	-12205
▁욕먹	-12206
▁원맨	-12207
▁이념	-12208
▁자칫	-12209
▁잘만	-12210
▁조인	-12211
▁조직	-12212
▁존중	-12213
▁중세	-12214
▁지들	-12215
▁지지	-12216
▁질투	-12217
▁처참	-12218
▁쳐도	-12219
▁침묵	-12220
▁코엔	-12221
▁픽사	-12222
▁할지	-12223
▁허전	-12224
▁황홀	-12225
▁후기	-12226
▁흐르	-12227
▁흘렀	-12228
가네요	-12229
겟네요	-12230
는지도	-12231
다가도	-12232
되면서	-12233
됬는데	-12234
반전이	-12235
분보고	-12236
사람만	-12237
사랑을	-12238
씬에서	-12239
아아아	-12240
윌리스	-12241
이것도	-12242
이런거	-12243
적이며	-12244
좋겠다	-12245
지않나	-12246
한거지	-12247
합니까	-12248
해준다	-12249
1407	-12250
9444	-12251
▁0.5	-12252
▁178	-12253
▁274	-12254
▁308	-12255
▁475	-12256
▁631	-12257
▁639	-12258
▁거대한	-12259
▁과거의	-12260
▁관객의	-12261
▁구리다	-12262
▁김구라	-12263
▁깊이가	-12264
▁나이에	-12265
▁느꼈던	-12266
▁다니는	-12267
▁다를게	-12268
▁달콤한	-12269
▁레이싱	-12270
▁리암니	-12271
▁마음은	-12272
▁막장의	-12273
▁말해서	-12274
▁몬스터	-12275
▁묵직한	-12276
▁뭡니까	-12277
▁미이라	-12278
▁범죄자	-12279
▁별다른	-12280
▁별볼일	-12281
▁보기도	-12282
▁보자고	-12283
▁봤다고	-12284
▁빨리감	-12285
▁살인을	-12286
▁상황에	-12287
▁섹시한	-12288
▁슬프게	-12289
▁슬픔이	-12290
▁시간의	-12291
▁신현준	-12292
▁심각한	-12293
▁심심한	-12294
▁씁쓸한	-12295
▁아시아	-12296
▁안난다	-12297
▁안든다	-12298
▁안에서	-12299
▁액션신	-12300
▁어려울	-12301
▁영화죠	-12302
▁왜만들	-12303
▁우리네	-12304
▁웃겨요	-12305
▁의미는	-12306
▁이들이	-12307
▁이리도	-12308
▁인간을	-12309
▁일상을	-12310
▁임청하	-12311
▁잘했다	-12312
▁장면들	-12313
▁정도껏	-12314
▁졸려서	-12315
▁주제로	-12316
▁죽이네	-12317
▁줄리엣	-12318
▁즐거움	-12319
▁지대로	-12320
▁진행이	-12321
▁최고라	-12322
▁충실한	-12323
▁팔아먹	-12324
▁플레이	-12325
▁하나만	-12326
▁한번은	-12327
▁홍금보	-12328
▁황정민	-12329
▁힘든데	-12330
★☆★☆	-12331
드라마로	-12332
앞으로도	-12333
▁2008	-12334
▁9303	-12335
▁9327	-12336
▁9683	-12337
▁9810	-12338
▁9853	-12339
▁9910	-12340
▁공감되는	-12341
▁그래픽은	-12342
▁나온다는	-12343
▁다운로드	-12344
▁말할것도	-12345
▁명작이라	-12346
▁브래드피	-12347
▁사랑이란	-12348
▁생각나네	-12349
▁생각했다	-12350
▁선동영화	-12351
▁소름돋는	-12352
▁스타일의	-12353
▁시청자를	-12354
▁실망했다	-12355
▁쓰레기들	-12356
▁쓰레기로	-12357
▁아니었음	-12358
▁안하는데	-12359
▁어색하다	-12360
▁이해하지	-12361
▁인간들은	-12362
▁전개되는	-12363
▁좋아하게	-12364
▁촌스러운	-12365
▁촬영기법	-12366
▁출연하는	-12367
▁코미디도	-12368
▁코스프레	-12369
▁해야하나	-12370
▁휴머니즘	-12371
▁10000	-12372
▁10067	-12373
▁10215	-12374
▁개인적으론	-12375
▁객관적으로	-12376
▁느꼈습니다	-12377
▁볼만하네요	-12378
▁시간아까움	-12379
▁시나리오는	-12380
▁싸이코패스	-12381
▁아름다웠던	-12382
▁영화자체가	-12383
▁오그라든다	-12384
▁우리나라에	-12385
▁유치하지만	-12386
▁재미없다는	-12387
▁재밌게봤음	-12388
▁재밌는영화	-12389
▁좋아할만한	-12390
),	-12391
ul	-12392
un	-12393
▁낼	-12394
▁뺨	-12395
▁쉣	-12396
▁슴	-12397
▁춘	-12398
▁턱	-12399
가기	-12400
가다	-12401
가도	-12402
가루	-12403
근래	-12404
깜짝	-12405
내면	-12406
너의	-12407
눈에	-12408
는디	-12409
대충	-12410
렬한	-12411
론은	-12412
린거	-12413
망이	-12414
머지	-12415
메오	-12416
미와	-12417
밖엔	-12418
사진	-12419
상과	-12420
세지	-12421
슨은	-12422
안함	-12423
야오	-12424
어어	-12425
어쩔	-12426
없구	-12427
엇던	-12428
여도	-12429
여름	-12430
용이	-12431
워커	-12432
이것	-12433
이시	-12434
이와	-12435
작정	-12436
제왕	-12437
죽을	-12438
지로	-12439
질만	-12440
책을	-12441
탄이	-12442
테니	-12443
트에	-12444
트와	-12445
하든	-12446
항상	-12447
행을	-12448
회를	-12449
.,.	-12450
ant	-12451
▁->	-12452
▁ᄀᄀ	-12453
▁각자	-12454
▁갑작	-12455
▁건너	-12456
▁게리	-12457
▁고래	-12458
▁고려	-12459
▁고로	-12460
▁고백	-12461
▁관점	-12462
▁기사	-12463
▁나빠	-12464
▁낳은	-12465
▁노는	-12466
▁놓친	-12467
▁닮은	-12468
▁더한	-12469
▁동일	-12470
▁뛰쳐	-12471
▁마츠	-12472
▁매년	-12473
▁목사	-12474
▁미리	-12475
▁미성	-12476
▁미칠	-12477
▁믿겨	-12478
▁믿음	-12479
▁발생	-12480
▁발휘	-12481
▁보임	-12482
▁부른	-12483
▁부여	-12484
▁비난	-12485
▁뽑아	-12486
▁서극	-12487
▁수애	-12488
▁슈렉	-12489
▁스탤	-12490
▁시민	-12491
▁실컷	-12492
▁씬은	-12493
▁악몽	-12494
▁안됐	-12495
▁안웃	-12496
▁암이	-12497
▁어둠	-12498
▁어의	-12499
▁얼른	-12500
▁에반	-12501
▁여진	-12502
▁영활	-12503
▁외화	-12504
▁유사	-12505
▁잇는	-12506
▁있으	-12507
▁재주	-12508
▁전환	-12509
▁줘서	-12510
▁진보	-12511
▁체험	-12512
▁출신	-12513
▁크고	-12514
▁터져	-12515
▁토요	-12516
▁파악	-12517
▁편이	-12518
▁표본	-12519
▁호텔	-12520
▁흔히	-12521
겁니까	-12522
기분이	-12523
된다는	-12524
드리고	-12525
몰라도	-12526
몰입도	-12527
무서운	-12528
버렸네	-12529
버렸음	-12530
상으로	-12531
아니야	-12532
어디서	-12533
왜이리	-12534
위해서	-12535
이면서	-12536
이상은	-12537
이하도	-12538
작품이	-12539
점수는	-12540
지금도	-12541
치도록	-12542
키드먼	-12543
하나의	-12544
하라고	-12545
할수록	-12546
훌륭한	-12547
,...	-12548
2014	-12549
6002	-12550
6784	-12551
ᄃᄃᄃᄃ	-12552
▁151	-12553
▁182	-12554
▁374	-12555
▁486	-12556
▁551	-12557
▁650	-12558
▁739	-12559
▁CGV	-12560
▁and	-12561
▁kbs	-12562
▁가득찬	-12563
▁같기도	-12564
▁결론이	-12565
▁곳에서	-12566
▁김강우	-12567
▁김태희	-12568
▁김하늘	-12569
▁나이트	-12570
▁나중엔	-12571
▁납니다	-12572
▁냄새가	-12573
▁니들은	-12574
▁다같이	-12575
▁답답함	-12576
▁된다고	-12577
▁때리고	-12578
▁막장이	-12579
▁만큼은	-12580
▁말한다	-12581
▁망쳤다	-12582
▁맞추기	-12583
▁목숨을	-12584
▁몰입을	-12585
▁못된다	-12586
▁못생겼	-12587
▁무료로	-12588
▁뭐하냐	-12589
▁미국판	-12590
▁박평식	-12591
▁반전과	-12592
▁배경은	-12593
▁배우로	-12594
▁보기는	-12595
▁보여서	-12596
▁봤다니	-12597
▁비중이	-12598
▁빵터짐	-12599
▁새롭고	-12600
▁세계를	-12601
▁순간이	-12602
▁신기한	-12603
▁신나는	-12604
▁약간은	-12605
▁언제쯤	-12606
▁영화면	-12607
▁영화좀	-12608
▁예뻐요	-12609
▁와이프	-12610
▁외에는	-12611
▁욕하는	-12612
▁울었음	-12613
▁이동욱	-12614
▁이은주	-12615
▁이해는	-12616
▁인기가	-12617
▁일이다	-12618
▁잘생긴	-12619
▁재밌긴	-12620
▁전도연	-12621
▁주려고	-12622
▁중국의	-12623
▁찌질한	-12624
▁차승원	-12625
▁첨본다	-12626
▁초반의	-12627
▁치밀한	-12628
▁평점좀	-12629
▁한국은	-12630
▁한정된	-12631
▁후덜덜	-12632
▁힘들어	-12633
배우들도	-12634
스토리를	-12635
이라는걸	-12636
이영화를	-12637
재미있는	-12638
하는구나	-12639
하지않은	-12640
▁8587	-12641
▁9237	-12642
▁9340	-12643
▁9845	-12644
▁9953	-12645
▁9983	-12646
▁9986	-12647
▁9992	-12648
▁깨알같은	-12649
▁꺼버렸다	-12650
▁나에게는	-12651
▁누구에게	-12652
▁로드무비	-12653
▁리즈시절	-12654
▁마지막의	-12655
▁만들겠다	-12656
▁만들기도	-12657
▁못미치는	-12658
▁볼거리가	-12659
▁불편하다	-12660
▁불필요한	-12661
▁사랑스런	-12662
▁생각하지	-12663
▁생각해도	-12664
▁생생하게	-12665
▁수준이다	-12666
▁스타일이	-12667
▁시원하게	-12668
▁싶은건지	-12669
▁안쓰는데	-12670
▁알고보니	-12671
▁어떻게든	-12672
▁없었지만	-12673
▁엉망이고	-12674
▁에이리언	-12675
▁오글거려	-12676
▁왠만해선	-12677
▁이걸보고	-12678
▁이야기와	-12679
▁일어나는	-12680
▁있는것도	-12681
▁자극하는	-12682
▁작품성이	-12683
▁작품인데	-12684
▁잔인하게	-12685
▁저평가된	-12686
▁좋아한다	-12687
▁주인공도	-12688
▁파라노말	-12689
▁허무하다	-12690
▁허술하다	-12691
점준것중에	-12692
▁10018	-12693
▁10025	-12694
▁10107	-12695
▁10124	-12696
▁10253	-12697
▁끝날때까지	-12698
▁드라마보다	-12699
▁드라마에요	-12700
▁마지막으로	-12701
▁몰입하면서	-12702
▁미안하지만	-12703
▁소름끼친다	-12704
▁수작입니다	-12705
▁쓰레기라고	-12706
▁없었습니다	-12707
▁영화인데도	-12708
▁잔잔하면서	-12709
▁페이크다큐	-12710
▁우리나라에서	-12711
ᄏᄏᄏᄏᄏᄏᄏᄏᄏᄏᄏ	-12712
ᄏᄏᄏᄏᄏᄏᄏᄏᄏᄏᄏᄏᄏ	-12713
>>	-12714
>_	-12715
CN	-12716
▁겸	-12717
▁눌	-12718
▁랩	-12719
▁잣	-12720
▁져	-12721
▁퉤	-12722
▁팽	-12723
가나	-12724
겁게	-12725
겠군	-12726
고에	-12727
깊게	-12728
는걸	-12729
는것	-12730
니잼	-12731
단다	-12732
되냐	-12733
랑이	-12734
론데	-12735
리온	-12736
마가	-12737
말은	-12738
무가	-12739
뭐가	-12740
밀리	-12741
바보	-12742
별점	-12743
본방	-12744
사냥	-12745
새벽	-12746
선물	-12747
세한	-12748
수다	-12749
수에	-12750
씬도	-12751
아담	-12752
안나	-12753
엉망	-12754
역에	-12755
워야	-12756
유미	-12757
이즈	-12758
자신	-12759
제는	-12760
졌고	-12761
주에	-12762
진지	-12763
질에	-12764
초등	-12765
타르	-12766
파괴	-12767
프다	-12768
하가	-12769
할게	-12770
행크	-12771
현재	-12772
훈이	-12773
ain	-12774
▁my	-12775
▁no	-12776
▁re	-12777
▁가식	-12778
▁감당	-12779
▁고급	-12780
▁고현	-12781
▁교차	-12782
▁구매	-12783
▁귀에	-12784
▁극과	-12785
▁기도	-12786
▁깜찍	-12787
▁날이	-12788
▁넘겨	-12789
▁눈부	-12790
▁대략	-12791
▁대변	-12792
▁대형	-12793
▁돌이	-12794
▁동방	-12795
▁두개	-12796
▁라면	-12797
▁류의	-12798
▁마주	-12799
▁매튜	-12800
▁먼지	-12801
▁모냐	-12802
▁몸에	-12803
▁못볼	-12804
▁문근	-12805
▁미루	-12806
▁미흡	-12807
▁반가	-12808
▁부자	-12809
▁붙여	-12810
▁비틀	-12811
▁사막	-12812
▁상식	-12813
▁색다	-12814
▁서민	-12815
▁순정	-12816
▁신앙	-12817
▁싶게	-12818
▁싶네	-12819
▁쌍욕	-12820
▁쌍팔	-12821
▁아야	-12822
▁안고	-12823
▁안목	-12824
▁애를	-12825
▁여고	-12826
▁여지	-12827
▁오류	-12828
▁오르	-12829
▁완소	-12830
▁왜저	-12831
▁요구	-12832
▁원빈	-12833
▁유오	-12834
▁일방	-12835
▁잘된	-12836
▁적응	-12837
▁전국	-12838
▁제미	-12839
▁제법	-12840
▁조쉬	-12841
▁지존	-12842
▁참다	-12843
▁투표	-12844
▁파트	-12845
▁평은	-12846
▁피어	-12847
▁필수	-12848
▁하얀	-12849
▁한결	-12850
▁한달	-12851
▁한표	-12852
▁할거	-12853
▁해줄	-12854
▁화해	-12855
▁희한	-12856
가족이	-12857
갔으면	-12858
건강에	-12859
걸까요	-12860
국주의	-12861
남자가	-12862
년대의	-12863
마무리	-12864
만큼도	-12865
매니아	-12866
메이징	-12867
밖에는	-12868
배우도	-12869
봅시다	-12870
수밖에	-12871
아닌듯	-12872
아들이	-12873
알바들	-12874
영환데	-12875
오히려	-12876
왔지만	-12877
우주연	-12878
이쁘다	-12879
인트가	-12880
있어야	-12881
재미잇	-12882
점드림	-12883
좋았음	-12884
주고싶	-12885
쪽으로	-12886
크리스	-12887
픕니다	-12888
하시면	-12889
할영화	-12890
해서는	-12891
1667	-12892
9254	-12893
ᄋᄋᄋᄋ	-12894
▁111	-12895
▁159	-12896
▁169	-12897
▁361	-12898
▁408	-12899
▁506	-12900
▁556	-12901
▁601	-12902
▁758	-12903
▁가는줄	-12904
▁각본과	-12905
▁고통을	-12906
▁관계를	-12907
▁그것은	-12908
▁그리운	-12909
▁꺼버림	-12910
▁꼭봐라	-12911
▁나라를	-12912
▁나았다	-12913
▁나한테	-12914
▁나홀로	-12915
▁남편이	-12916
▁놀라울	-12917
▁놈들이	-12918
▁눈물도	-12919
▁눈빛이	-12920
▁느껴짐	-12921
▁단체로	-12922
▁돋보임	-12923
▁돌려줘	-12924
▁듣보잡	-12925
▁모두다	-12926
▁모습도	-12927
▁못하게	-12928
▁뭔가를	-12929
▁배경을	-12930
▁보고서	-12931
▁볼수가	-12932
▁봐야함	-12933
▁봤을땐	-12934
▁비추천	-12935
▁사로잡	-12936
▁생겨서	-12937
▁수준급	-12938
▁신파극	-12939
▁실망한	-12940
▁아닌거	-12941
▁안가고	-12942
▁어느새	-12943
▁어벤져	-12944
▁어지간	-12945
▁어째서	-12946
▁얼굴도	-12947
▁여성의	-12948
▁연기파	-12949
▁연출에	-12950
▁영화고	-12951
▁웃음도	-12952
▁원맨쇼	-12953
▁일본식	-12954
▁잘생김	-12955
▁전쟁이	-12956
▁전편에	-12957
▁졸았다	-12958
▁즐기는	-12959
▁지겨운	-12960
▁추악한	-12961
▁케이지	-12962
▁크루즈	-12963
▁클라스	-12964
▁터무니	-12965
▁파이팅	-12966
▁프레디	-12967
▁하나님	-12968
▁하는것	-12969
▁한예슬	-12970
▁한장면	-12971
▁황비홍	-12972
▁흔적이	-12973
▁흘러도	-12974
기때문에	-12975
다고생각	-12976
만든영화	-12977
만들어도	-12978
보여주는	-12979
쓰레기다	-12980
영화중에	-12981
임파서블	-12982
재밌는데	-12983
주인공의	-12984
지금까지	-12985
짜증난다	-12986
하하하하	-12987
?""""	-12988
▁7928	-12989
▁8025	-12990
▁9243	-12991
▁9314	-12992
▁9603	-12993
▁9612	-12994
▁9753	-12995
▁9868	-12996
▁9904	-12997
▁9915	-12998
▁9997	-12999
▁기준으로	-13000
▁드라마임	-13001
▁떠올리게	-13002
▁리얼하게	-13003
▁만드는지	-13004
▁멋있었다	-13005
▁몇번이고	-13006
▁못하지만	-13007
▁무의미한	-13008
▁배우들만	-13009
▁보았지만	-13010
▁분명하다	-13011
▁불편하고	-13012
▁사랑스러	-13013
▁심사위원	-13014
▁아메리칸	-13015
▁아이들을	-13016
▁안봤는데	-13017
▁않았는데	-13018
▁알바들이	-13019
▁액션으로	-13020
▁어울린다	-13021
▁없었다면	-13022
▁영화니까	-13023
▁영화인거	-13024
▁오그라들	-13025
▁잊을수가	-13026
▁잔잔하니	-13027
▁전문성우	-13028
▁졸업작품	-13029
▁진정으로	-13030
▁참신하고	-13031
▁최곱니다	-13032
▁캐릭터에	-13033
▁화가난다	-13034
점드립니다	-13035
좋아하는데	-13036
▁10013	-13037
▁10017	-13038
▁10020	-13039
▁10115	-13040
▁10164	-13041
▁너무좋아요	-13042
▁생각하는데	-13043
▁않았습니다	-13044
▁연기자들의	-13045
▁이스트우드	-13046
▁재미가없다	-13047
▁중간중간에	-13048
▁처음입니다	-13049
▁프랑스영화	-13050
▁말이필요없는	-13051
▁ᄏᄏᄏᄏᄏᄏᄏᄏᄏᄏᄏᄏᄏ	-13052
./	-13053
.3	-13054
▁닐	-13055
▁덩	-13056
▁밟	-13057
▁왈	-13058
▁텅	-13059
▁핫	-13060
걸린	-13061
게도	-13062
경은	-13063
고를	-13064
고요	-13065
글고	-13066
금지	-13067
기동	-13068
기스	-13069
길이	-13070
끼고	-13071
나지	-13072
날의	-13073
낮다	-13074
대결	-13075
대서	-13076
데기	-13077
동석	-13078
동엽	-13079
때의	-13080
력도	-13081
르다	-13082
림을	-13083
만옥	-13084
망한	-13085
모토	-13086
무라	-13087
물고	-13088
물도	-13089
보나	-13090
볼때	-13091
봤자	-13092
분히	-13093
뿐인	-13094
사기	-13095
생의	-13096
셜록	-13097
순위	-13098
스틸	-13099
써서	-13100
아자	-13101
없냐	-13102
왠지	-13103
우울	-13104
우치	-13105
운의	-13106
이웃	-13107
입견	-13108
입장	-13109
적일	-13110
전기	-13111
전설	-13112
제의	-13113
주로	-13114
즈는	-13115
증에	-13116
찍는	-13117
청춘	-13118
치콕	-13119
코의	-13120
콜릿	-13121
크를	-13122
타이	-13123
피니	-13124
필드	-13125
해여	-13126
허허	-13127
-.-	-13128
^^;	-13129
^_^	-13130
▁가미	-13131
▁갑갑	-13132
▁거대	-13133
▁건축	-13134
▁경이	-13135
▁고은	-13136
▁고정	-13137
▁금방	-13138
▁김보	-13139
▁껏다	-13140
▁꿈에	-13141
▁나눠	-13142
▁난감	-13143
▁녀석	-13144
▁녹화	-13145
▁다듬	-13146
▁단조	-13147
▁독백	-13148
▁되길	-13149
▁된게	-13150
▁등이	-13151
▁레드	-13152
▁로긴	-13153
▁마사	-13154
▁매회	-13155
▁멜깁	-13156
▁명곡	-13157
▁문학	-13158
▁뭐죠	-13159
▁미달	-13160
▁미사	-13161
▁배틀	-13162
▁보네	-13163
▁보실	-13164
▁사형	-13165
▁살릴	-13166
▁서인	-13167
▁수치	-13168
▁숨이	-13169
▁습작	-13170
▁심은	-13171
▁썩은	-13172
▁아키	-13173
▁악의	-13174
▁애정	-13175
▁야이	-13176
▁양산	-13177
▁어깨	-13178
▁어렷	-13179
▁없구	-13180
▁오마	-13181
▁옹호	-13182
▁유리	-13183
▁의존	-13184
▁이뤄	-13185
▁인한	-13186
▁자제	-13187
▁장쯔	-13188
▁재회	-13189
▁저의	-13190
▁전무	-13191
▁전통	-13192
▁죄를	-13193
▁쫄깃	-13194
▁참혹	-13195
▁창작	-13196
▁추잡	-13197
▁클라	-13198
▁태양	-13199
▁토이	-13200
▁트라	-13201
▁파란	-13202
▁프렌	-13203
▁하차	-13204
▁한건	-13205
▁해보	-13206
▁해적	-13207
▁획을	-13208
▁후진	-13209
▁훈련	-13210
간다는	-13211
감동을	-13212
날로그	-13213
녀유혼	-13214
다니고	-13215
대사가	-13216
더이상	-13217
만드나	-13218
성있는	-13219
야겠다	-13220
없으면	-13221
역으로	-13222
였다니	-13223
영화나	-13224
이없다	-13225
작가가	-13226
잔잔한	-13227
장면만	-13228
죽는줄	-13229
줄알고	-13230
친구가	-13231
하나는	-13232
하던가	-13233
해놓은	-13234
햇지만	-13235
1699	-13236
1918	-13237
6797	-13238
6838	-13239
9315	-13240
9514	-13241
9777	-13242
good	-13243
▁177	-13244
▁291	-13245
▁446	-13246
▁449	-13247
▁479	-13248
▁549	-13249
▁599	-13250
▁686	-13251
▁689	-13252
▁701	-13253
▁각본이	-13254
▁감정의	-13255
▁거리가	-13256
▁것처럼	-13257
▁그녀는	-13258
▁그랬다	-13259
▁극적인	-13260
▁기대해	-13261
▁기억은	-13262
▁긴장을	-13263
▁김명민	-13264
▁끝나지	-13265
▁나라의	-13266
▁나쁘진	-13267
▁노래만	-13268
▁노력한	-13269
▁노무현	-13270
▁달달한	-13271
▁로보캅	-13272
▁만든것	-13273
▁많았다	-13274
▁말하려	-13275
▁말하지	-13276
▁멋있음	-13277
▁몰라서	-13278
▁못보겠	-13279
▁무책임	-13280
▁배우다	-13281
▁보네요	-13282
▁보러갔	-13283
▁복수가	-13284
▁분노의	-13285
▁산드라	-13286
▁성우를	-13287
▁성유리	-13288
▁소년의	-13289
▁시선을	-13290
▁실패한	-13291
▁싸우고	-13292
▁아들과	-13293
▁아쉽긴	-13294
▁알수가	-13295
▁애절한	-13296
▁어떨까	-13297
▁어려서	-13298
▁엄마와	-13299
▁없다면	-13300
▁엔딩곡	-13301
▁영혼을	-13302
▁완벽히	-13303
▁왔어요	-13304
▁외로운	-13305
▁유아용	-13306
▁이게왜	-13307
▁이러니	-13308
▁이뻐요	-13309
▁있는거	-13310
▁잘봤다	-13311
▁장면에	-13312
▁재밋어	-13313
▁조승우	-13314
▁존재가	-13315
▁좋아하	-13316
▁주말에	-13317
▁죽어서	-13318
▁죽을뻔	-13319
▁중딩때	-13320
▁즐겁다	-13321
▁지구를	-13322
▁지저분	-13323
▁지하철	-13324
▁집어넣	-13325
▁짧아서	-13326
▁차가운	-13327
▁초딩이	-13328
▁최선을	-13329
▁출연료	-13330
▁코믹한	-13331
▁펑펑울	-13332
▁피라냐	-13333
▁한국형	-13334
▁한다면	-13335
▁해리슨	-13336
▁했다는	-13337
▁했다면	-13338
▁행동이	-13339
▁후반에	-13340
▁흥해라	-13341
것같아서	-13342
기보다는	-13343
이라지만	-13344
이야기가	-13345
인거같다	-13346
할수밖에	-13347
?????	-13348
~!!!!	-13349
▁2006	-13350
▁2007	-13351
▁8014	-13352
▁8514	-13353
▁8665	-13354
▁8918	-13355
▁9227	-13356
▁9462	-13357
▁9467	-13358
▁9475	-13359
▁9567	-13360
▁9765	-13361
▁9812	-13362
▁9848	-13363
▁그래픽도	-13364
▁끝내준다	-13365
▁남자들의	-13366
▁능가하는	-13367
▁돌아가는	-13368
▁멋지네요	-13369
▁명작인데	-13370
▁무언가가	-13371
▁미국에서	-13372
▁미치겠다	-13373
▁미화하는	-13374
▁보여주지	-13375
▁샤론스톤	-13376
▁솔직하게	-13377
▁스릴러의	-13378
▁신선하다	-13379
▁아니에요	-13380
▁안나와서	-13381
▁안되네요	-13382
▁안봤으면	-13383
▁안봤지만	-13384
▁알면서도	-13385
▁어머니의	-13386
▁였습니다	-13387
▁영화일뿐	-13388
▁외계인이	-13389
▁욕나오는	-13390
▁유치뽕짝	-13391
▁인내심을	-13392
▁있어보이	-13393
▁주연으로	-13394
▁중에서도	-13395
▁캐스팅에	-13396
▁코미디를	-13397
▁크리스틴	-13398
▁했었는데	-13399
▁화끈하게	-13400
▁후반으로	-13401
▁후회하지	-13402
영화중에서	-13403
▁10012	-13404
▁10063	-13405
▁10074	-13406
▁10113	-13407
▁10133	-13408
▁10182	-13409
▁10255	-13410
▁가면갈수록	-13411
▁공포영화의	-13412
▁기대합니다	-13413
▁나왔습니다	-13414
▁내용전개가	-13415
▁대단합니다	-13416
▁로그인하게	-13417
▁마이너스는	-13418
▁만들었네요	-13419
▁못봐주겠다	-13420
▁보면볼수록	-13421
▁스타일리쉬	-13422
▁시나리오와	-13423
▁아니었으면	-13424
▁아름다움을	-13425
▁억지스럽다	-13426
▁여주인공은	-13427
▁영화관가서	-13428
▁인상적이다	-13429
▁자연스럽고	-13430
▁적나라하게	-13431
▁추천해주고	-13432
▁캐릭터들의	-13433
▁평론가들은	-13434
▁할말이없다	-13435
▁행복해지는	-13436
쓰레기쓰레기	-13437
인줄알았는데	-13438
ᄏᄏᄏᄏᄏᄏᄏᄏᄏᄏᄏᄏ	-13439
▁ᄏᄏᄏᄏᄏᄏᄏᄏᄏᄏᄏᄏᄏᄏ	-13440
um	-13441
▁)	-13442
▁ᄁ	-13443
▁뽕	-13444
▁였	-13445
▁욱	-13446
▁쬐	-13447
▁츠	-13448
▁퀸	-13449
▁헨	-13450
▁흰	-13451
같지	-13452
개판	-13453
걸고	-13454
공의	-13455
공이	-13456
권을	-13457
그거	-13458
그닥	-13459
끄고	-13460
난이	-13461
남겨	-13462
남편	-13463
놔서	-13464
달러	-13465
대장	-13466
더의	-13467
도전	-13468
둘이	-13469
뒤로	-13470
드벤	-13471
디에	-13472
레드	-13473
려한	-13474
르의	-13475
리라	-13476
리브	-13477
리어	-13478
리자	-13479
리화	-13480
말에	-13481
맥스	-13482
맨이	-13483
멸의	-13484
몸매	-13485
무어	-13486
민서	-13487
반도	-13488
받았	-13489
비판	-13490
비하	-13491
산이	-13492
선가	-13493
스텝	-13494
슬픔	-13495
시노	-13496
시로	-13497
신듯	-13498
안습	-13499
야의	-13500
약간	-13501
오버	-13502
올린	-13503
우와	-13504
을꺼	-13505
이였	-13506
인한	-13507
일도	-13508
일체	-13509
잊혀	-13510
자랑	-13511
전거	-13512
정씨	-13513
져도	-13514
조절	-13515
조한	-13516
중인	-13517
지구	-13518
짓게	-13519
차고	-13520
찾기	-13521
카시	-13522
탄을	-13523
태규	-13524
텔링	-13525
투자	-13526
틀어	-13527
팬더	-13528
풀이	-13529
하트	-13530
행이	-13531
헌터	-13532
호화	-13533
홍콩	-13534
훈훈	-13535
흥행	-13536
ast	-13537
▁각인	-13538
▁간절	-13539
▁갈아	-13540
▁개떡	-13541
▁거침	-13542
▁괜춘	-13543
▁괴롭	-13544
▁구로	-13545
▁구원	-13546
▁그땐	-13547
▁끼어	-13548
▁낫지	-13549
▁낮추	-13550
▁낮춰	-13551
▁넘버	-13552
▁놈이	-13553
▁눈만	-13554
▁뉴스	-13555
▁달아	-13556
▁대리	-13557
▁댄스	-13558
▁데드	-13559
▁동정	-13560
▁동참	-13561
▁동호	-13562
▁되새	-13563
▁들었	-13564
▁디아	-13565
▁땀을	-13566
▁때론	-13567
▁똥폼	-13568
▁뚜렷	-13569
▁롯데	-13570
▁르네	-13571
▁말지	-13572
▁맛을	-13573
▁망쳤	-13574
▁메리	-13575
▁몰래	-13576
▁못지	-13577
▁무거	-13578
▁뭣도	-13579
▁바가	-13580
▁바뀐	-13581
▁박영	-13582
▁발랄	-13583
▁방식	-13584
▁보물	-13585
▁볼꺼	-13586
▁볼껄	-13587
▁봐요	-13588
▁부럽	-13589
▁부인	-13590
▁불꽃	-13591
▁불만	-13592
▁불사	-13593
▁사나	-13594
▁살기	-13595
▁삼국	-13596
▁선수	-13597
▁선전	-13598
▁설렘	-13599
▁세트	-13600
▁승화	-13601
▁시덥	-13602
▁실존	-13603
▁실종	-13604
▁쓰레	-13605
▁아랫	-13606
▁안죽	-13607
▁얄팍	-13608
▁어줍	-13609
▁에어	-13610
▁역을	-13611
▁역활	-13612
▁오다	-13613
▁온다	-13614
▁왜냐	-13615
▁운운	-13616
▁으아	-13617
▁이룬	-13618
▁이주	-13619
▁인식	-13620
▁자라	-13621
▁자존	-13622
▁잠든	-13623
▁정답	-13624
▁졸려	-13625
▁좌파	-13626
▁주면	-13627
▁줄은	-13628
▁청년	-13629
▁치명	-13630
▁타짜	-13631
▁탐욕	-13632
▁터짐	-13633
▁파리	-13634
▁하필	-13635
▁함정	-13636
▁했네	-13637
▁현빈	-13638
▁호감	-13639
▁혹평	-13640
▁활약	-13641
▁후유	-13642
▁흔해	-13643
것같고	-13644
나오면	-13645
남는다	-13646
남자의	-13647
났어요	-13648
년이나	-13649
년이지	-13650
되어야	-13651
라는거	-13652
라는데	-13653
뮤지컬	-13654
버려서	-13655
보지말	-13656
소재로	-13657
슬프고	-13658
십시오	-13659
아무튼	-13660
안되게	-13661
없는게	-13662
없었던	-13663
에게서	-13664
위에서	-13665
인데요	-13666
일까요	-13667
잘하고	-13668
점이면	-13669
점이지	-13670
점인데	-13671
졌는데	-13672
죽이는	-13673
줬는데	-13674
지는데	-13675
터지는	-13676
테이크	-13677
프랑스	-13678
해줘서	-13679
-_-;	-13680
6000	-13681
6430	-13682
6444	-13683
6468	-13684
6470	-13685
6537	-13686
6618	-13687
9459	-13688
9487	-13689
▁128	-13690
▁202	-13691
▁321	-13692
▁328	-13693
▁339	-13694
▁359	-13695
▁379	-13696
▁389	-13697
▁413	-13698
▁609	-13699
▁656	-13700
▁OCN	-13701
▁가네요	-13702
▁가만히	-13703
▁가슴찡	-13704
▁감독아	-13705
▁강호동	-13706
▁교훈이	-13707
▁그리스	-13708
▁극장서	-13709
▁급전개	-13710
▁나와라	-13711
▁납득이	-13712
▁내면의	-13713
▁다녀온	-13714
▁단언컨	-13715
▁당신을	-13716
▁당하고	-13717
▁당하는	-13718
▁대사들	-13719
▁더빙도	-13720
▁데려다	-13721
▁돈아깝	-13722
▁뒤집어	-13723
▁따라한	-13724
▁리얼한	-13725
▁몇년이	-13726
▁못하나	-13727
▁민망한	-13728
▁바보가	-13729
▁배우고	-13730
▁본인이	-13731
▁부끄럽	-13732
▁브레이	-13733
▁빡쳐서	-13734
▁사건을	-13735
▁사건의	-13736
▁사실에	-13737
▁사회를	-13738
▁서부극	-13739
▁서서히	-13740
▁소리를	-13741
▁속편이	-13742
▁스마트	-13743
▁시시한	-13744
▁신들린	-13745
▁신선함	-13746
▁아들의	-13747
▁아쉬워	-13748
▁아쉽네	-13749
▁아오이	-13750
▁아이도	-13751
▁안되요	-13752
▁안맞고	-13753
▁안성기	-13754
▁알아서	-13755
▁암울한	-13756
▁애니로	-13757
▁양조위	-13758
▁엄태웅	-13759
▁없더라	-13760
▁에로틱	-13761
▁역사의	-13762
▁연기나	-13763
▁연출로	-13764
▁연출한	-13765
▁영구와	-13766
▁영상을	-13767
▁요소는	-13768
▁음악의	-13769
▁이러한	-13770
▁이런데	-13771
▁이만큼	-13772
▁이모양	-13773
▁이작품	-13774
▁이후의	-13775
▁잃었다	-13776
▁자체를	-13777
▁잔잔함	-13778
▁장르에	-13779
▁재해석	-13780
▁제정신	-13781
▁조선족	-13782
▁졸작이	-13783
▁좋아라	-13784
▁찍어라	-13785
▁찾았다	-13786
▁천재다	-13787
▁최대한	-13788
▁톰행크	-13789
▁평가가	-13790
▁필요는	-13791
▁하는가	-13792
▁한국에	-13793
▁한사람	-13794
▁합시다	-13795
▁핸드폰	-13796
▁환상의	-13797
▁후에도	-13798
▁흐름을	-13799
▁흥행에	-13800
생각하게	-13801
이드라마	-13802
재미없네	-13803
재미있고	-13804
점이라도	-13805
....?	-13806
naver	-13807
▁1990	-13808
▁2002	-13809
▁7560	-13810
▁8024	-13811
▁8198	-13812
▁8673	-13813
▁8768	-13814
▁9207	-13815
▁9235	-13816
▁9294	-13817
▁9413	-13818
▁9447	-13819
▁9465	-13820
▁9477	-13821
▁9662	-13822
▁9677	-13823
▁9857	-13824
▁9895	-13825
▁9987	-13826
▁Very	-13827
▁감동감동	-13828
▁감동으로	-13829
▁거슬린다	-13830
▁괜찮았고	-13831
▁그나저나	-13832
▁극단적인	-13833
▁기다리고	-13834
▁기분좋은	-13835
▁끊임없이	-13836
▁끝내주는	-13837
▁난해하다	-13838
▁내스타일	-13839
▁내용이나	-13840
▁다가오는	-13841
▁담담하게	-13842
▁떠오른다	-13843
▁만들었던	-13844
▁망한영화	-13845
▁망했는지	-13846
▁멋집니다	-13847
▁모두에게	-13848
▁물론이고	-13849
▁반성해라	-13850
▁반전까지	-13851
▁보기드문	-13852
▁보이네요	-13853
▁볼거리도	-13854
▁분위기의	-13855
▁사실적인	-13856
▁상상력을	-13857
▁스케일도	-13858
▁아날로그	-13859
▁아버지를	-13860
▁알겠으나	-13861
▁어땠을까	-13862
▁연출력도	-13863
▁영화다운	-13864
▁완성도는	-13865
▁용두사미	-13866
▁유쾌하다	-13867
▁이게뭐야	-13868
▁이정도는	-13869
▁인물들이	-13870
▁재밌었어	-13871
▁잼있었다	-13872
▁주옥같은	-13873
▁짱이에요	-13874
▁짱입니다	-13875
▁코미디로	-13876
▁한순간도	-13877
▁허무하고	-13878
▁훌륭했다	-13879
것도아니고	-13880
보고있어요	-13881
최악의영화	-13882
하지마세요	-13883
;;;;;;	-13884
▁10103	-13885
▁10213	-13886
▁10220	-13887
▁10257	-13888
▁10268	-13889
▁10272	-13890
▁개봉했을때	-13891
▁더럽게없다	-13892
▁드라마였다	-13893
▁먹먹해지는	-13894
▁실망스러운	-13895
▁어처구니가	-13896
▁의심스럽다	-13897
▁이런영화에	-13898
▁잔인하지도	-13899
▁재미없었던	-13900
▁최악입니다	-13901
▁무섭지도않고	-13902
▁무슨내용인지	-13903
▁애니메이션은	-13904
.'	-13905
ak	-13906
ff	-13907
~.	-13908
▁ᅢ	-13909
▁↓	-13910
▁균	-13911
▁윈	-13912
▁쿡	-13913
▁펜	-13914
감각	-13915
겁고	-13916
계상	-13917
구난	-13918
그려	-13919
껴서	-13920
끝도	-13921
끝에	-13922
나잇	-13923
남녀	-13924
년후	-13925
니발	-13926
단의	-13927
단이	-13928
대표	-13929
돈다	-13930
등을	-13931
래야	-13932
래원	-13933
레미	-13934
로선	-13935
로얄	-13936
루니	-13937
르지	-13938
리얼	-13939
만원	-13940
맛에	-13941
메다	-13942
못미	-13943
뭐니	-13944
미남	-13945
미드	-13946
방을	-13947
별한	-13948
복이	-13949
비의	-13950
빠다	-13951
사로	-13952
생겼	-13953
설레	-13954
섹스	-13955
셔요	-13956
소사	-13957
쉽게	-13958
스탈	-13959
심과	-13960
아씨	-13961
아역	-13962
안쓰	-13963
않는	-13964
애기	-13965
야만	-13966
어렵	-13967
에효	-13968
요한	-13969
인표	-13970
일지	-13971
입은	-13972
자이	-13973
졸라	-13974
주니	-13975
주변	-13976
즈를	-13977
집중	-13978
차가	-13979
처리	-13980
천국	-13981
총사	-13982
탄은	-13983
탈리	-13984
편만	-13985
프트	-13986
햇던	-13987
햇음	-13988
현우	-13989
현지	-13990
희를	-13991
히히	-13992
.!!	-13993
ome	-13994
ust	-13995
▁1%	-13996
▁2%	-13997
▁5.	-13998
▁MC	-13999
▁vs	-14000
▁가게	-14001
▁각성	-14002
▁건진	-14003
▁걸레	-14004
▁구려	-14005
▁귀가	-14006
▁그딴	-14007
▁글구	-14008
▁기막	-14009
▁꼽을	-14010
▁끄는	-14011
▁나간	-14012
▁남김	-14013
▁네가	-14014
▁닌자	-14015
▁단점	-14016
▁당당	-14017
▁도박	-14018
▁독창	-14019
▁들을	-14020
▁리플	-14021
▁마크	-14022
▁망함	-14023
▁몇일	-14024
▁모델	-14025
▁못된	-14026
▁무덤	-14027
▁미군	-14028
▁밝고	-14029
▁밝은	-14030
▁배운	-14031
▁별이	-14032
▁보장	-14033
▁보호	-14034
▁봤어	-14035
▁비명	-14036
▁빼놓	-14037
▁사춘	-14038
▁성괴	-14039
▁속지	-14040
▁수식	-14041
▁수정	-14042
▁수퍼	-14043
▁스며	-14044
▁스틸	-14045
▁시바	-14046
▁싫음	-14047
▁써도	-14048
▁써라	-14049
▁알리	-14050
▁암살	-14051
▁애썼	-14052
▁어쩐	-14053
▁언급	-14054
▁언어	-14055
▁에니	-14056
▁연계	-14057
▁옥의	-14058
▁외엔	-14059
▁웬만	-14060
▁이슈	-14061
▁이슬	-14062
▁이웃	-14063
▁이질	-14064
▁일드	-14065
▁잃지	-14066
▁자는	-14067
▁정부	-14068
▁좋으	-14069
▁주원	-14070
▁줬다	-14071
▁지속	-14072
▁지식	-14073
▁지원	-14074
▁진주	-14075
▁진화	-14076
▁짠한	-14077
▁짱구	-14078
▁찡한	-14079
▁책도	-14080
▁치우	-14081
▁크리	-14082
▁큰일	-14083
▁택시	-14084
▁트루	-14085
▁포스	-14086
▁피가	-14087
▁한물	-14088
▁해학	-14089
▁허영	-14090
▁회사	-14091
▁히트	-14092
것이지	-14093
것인지	-14094
급이다	-14095
들과는	-14096
랍시고	-14097
로써는	-14098
리우드	-14099
마음을	-14100
배우는	-14101
보이고	-14102
본사람	-14103
비슷한	-14104
시킨다	-14105
았다는	-14106
연기와	-14107
예전에	-14108
올시다	-14109
이란걸	-14110
이상실	-14111
인들은	-14112
일라잇	-14113
일수도	-14114
저렇게	-14115
정도다	-14116
지않을	-14117
척하는	-14118
페이지	-14119
편보고	-14120
하던지	-14121
하진않	-14122
해버린	-14123
했었다	-14124
1245	-14125
1246	-14126
1593	-14127
1617	-14128
1669	-14129
1697	-14130
1994	-14131
6005	-14132
6312	-14133
ight	-14134
▁104	-14135
▁209	-14136
▁235	-14137
▁251	-14138
▁348	-14139
▁352	-14140
▁376	-14141
▁439	-14142
▁502	-14143
▁508	-14144
▁529	-14145
▁536	-14146
▁659	-14147
▁828	-14148
▁901	-14149
▁mbc	-14150
▁감정선	-14151
▁강혜정	-14152
▁같다는	-14153
▁관계가	-14154
▁그때는	-14155
▁그런건	-14156
▁기괴한	-14157
▁끝나네	-14158
▁끝내주	-14159
▁끝으로	-14160
▁나라가	-14161
▁넘치고	-14162
▁높네요	-14163
▁눈뜨고	-14164
▁눈요기	-14165
▁다음에	-14166
▁대하여	-14167
▁더빙을	-14168
▁돌리도	-14169
▁동심을	-14170
▁되는거	-14171
▁된다면	-14172
▁따듯한	-14173
▁때부터	-14174
▁때우기	-14175
▁멋있게	-14176
▁멋있어	-14177
▁모두들	-14178
▁모두를	-14179
▁박신양	-14180
▁방식이	-14181
▁버리는	-14182
▁보지만	-14183
▁봤으니	-14184
▁소녀의	-14185
▁슈스케	-14186
▁스릴은	-14187
▁슬픔을	-14188
▁시스템	-14189
▁신민아	-14190
▁싫어서	-14191
▁심했다	-14192
▁씹노잼	-14193
▁아니란	-14194
▁아들을	-14195
▁아마도	-14196
▁아픔이	-14197
▁알려주	-14198
▁약하고	-14199
▁어리석	-14200
▁엄마는	-14201
▁없구만	-14202
▁엉덩이	-14203
▁여자와	-14204
▁역할이	-14205
▁와이어	-14206
▁완전한	-14207
▁왜이럼	-14208
▁용서가	-14209
▁위로가	-14210
▁음악만	-14211
▁이런것	-14212
▁이전에	-14213
▁일어난	-14214
▁일점도	-14215
▁있었나	-14216
▁작품도	-14217
▁작품들	-14218
▁잔잔히	-14219
▁잠수함	-14220
▁장만옥	-14221
▁전설이	-14222
▁정치적	-14223
▁조아요	-14224
▁조재현	-14225
▁좋아함	-14226
▁좋았어	-14227
▁죽음의	-14228
▁차원이	-14229
▁철없는	-14230
▁촌스럽	-14231
▁최고지	-14232
▁최민수	-14233
▁친구를	-14234
▁캐서린	-14235
▁폴워커	-14236
▁표현을	-14237
▁하나를	-14238
▁하니까	-14239
▁행복해	-14240
▁확실한	-14241
▁후회할	-14242
그레이드	-14243
봣습니다	-14244
사람들의	-14245
영화이다	-14246
이라는거	-14247
이었다는	-14248
재밌네요	-14249
좋아해서	-14250
지않았다	-14251
하자마자	-14252
▁2009	-14253
▁6077	-14254
▁7445	-14255
▁7473	-14256
▁7562	-14257
▁7800	-14258
▁8135	-14259
▁8213	-14260
▁8557	-14261
▁8585	-14262
▁9245	-14263
▁9420	-14264
▁9437	-14265
▁9483	-14266
▁9484	-14267
▁9503	-14268
▁9573	-14269
▁9613	-14270
▁9754	-14271
▁9813	-14272
▁9815	-14273
▁9837	-14274
▁9843	-14275
▁9854	-14276
▁9970	-14277
▁개봉하는	-14278
▁개봉하지	-14279
▁계속해서	-14280
▁고마워요	-14281
▁괜찮던데	-14282
▁기분이다	-14283
▁기억하는	-14284
▁깨달았다	-14285
▁맥라이언	-14286
▁몇안되는	-14287
▁몰입감이	-14288
▁몰입도는	-14289
▁무서운거	-14290
▁무섭다고	-14291
▁밋밋하고	-14292
▁배우들로	-14293
▁보다보면	-14294
▁보여줬다	-14295
▁비슷하게	-14296
▁비현실적	-14297
▁사랑하게	-14298
▁생각지도	-14299
▁숨막히는	-14300
▁스펙타클	-14301
▁신기하다	-14302
▁실화라고	-14303
▁실화라는	-14304
▁심심할때	-14305
▁아무래도	-14306
▁아쉬웠다	-14307
▁아이리스	-14308
▁안된다는	-14309
▁어메이징	-14310
▁어중간한	-14311
▁억지스럽	-14312
▁엑스트라	-14313
▁연기력을	-14314
▁영화에선	-14315
▁영화처럼	-14316
▁와닿는다	-14317
▁완성도를	-14318
▁원작보다	-14319
▁이름으로	-14320
▁이미지가	-14321
▁일본애니	-14322
▁있었어요	-14323
▁작품으로	-14324
▁좋아하면	-14325
▁지루해요	-14326
▁촌스럽고	-14327
▁최고였음	-14328
▁틀림없다	-14329
▁팬이라서	-14330
▁풋풋하고	-14331
▁프레데터	-14332
▁하기에는	-14333
감동적이고	-14334
보고있는데	-14335
이런영화가	-14336
▁10057	-14337
▁10123	-14338
▁10243	-14339
▁10265	-14340
▁강추입니다	-14341
▁니콜키드먼	-14342
▁다르겠지만	-14343
▁대단하네요	-14344
▁대박입니다	-14345
▁대한민국의	-14346
▁만들었는데	-14347
▁모르겠어요	-14348
▁스크린으로	-14349
▁여자친구랑	-14350
▁영화이지만	-14351
▁오랜만이다	-14352
▁이영화에서	-14353
▁재미있던데	-14354
▁정신건강에	-14355
▁좋아합니다	-14356
▁좋아했는데	-14357
▁지루하네요	-14358
▁지루하다고	-14359
▁지루하지도	-14360
▁초등학생때	-14361
▁캐릭터들도	-14362
▁브루스윌리스	-14363
▁영화보는내내	-14364
▁행복했습니다	-14365
▁흥미진진하고	-14366
▁감동적이었어요	-14367
...............	-14368
ee	-14369
ir	-14370
lt	-14371
us	-14372
~7	-14373
ᄅᄀ	-14374
▁닉	-14375
▁롭	-14376
▁믹	-14377
▁밸	-14378
▁삭	-14379
▁쟁	-14380
▁킥	-14381
갖고	-14382
같애	-14383
겟지	-14384
경의	-14385
관리	-14386
괴물	-14387
구로	-14388
그지	-14389
금이	-14390
년들	-14391
년은	-14392
느님	-14393
다를	-14394
단순	-14395
대본	-14396
대작	-14397
동물	-14398
됬다	-14399
두개	-14400
따윈	-14401
락이	-14402
레쉬	-14403
렸어	-14404
령이	-14405
로게	-14406
류가	-14407
린지	-14408
릴라	-14409
마에	-14410
마의	-14411
만나	-14412
만함	-14413
맞아	-14414
맨날	-14415
모루	-14416
물어	-14417
바뀌	-14418
방에	-14419
병이	-14420
분장	-14421
빠이	-14422
설명	-14423
순례	-14424
스오	-14425
스파	-14426
시장	-14427
씁쓸	-14428
아픈	-14429
알게	-14430
알려	-14431
애를	-14432
엔틴	-14433
외국	-14434
운동	-14435
웃겼	-14436
의사	-14437
이드	-14438
인칭	-14439
자유	-14440
적도	-14441
점임	-14442
젝트	-14443
조의	-14444
죽음	-14445
진씨	-14446
짝퉁	-14447
쩌네	-14448
쩌는	-14449
착한	-14450
키의	-14451
탄탄	-14452
평범	-14453
포로	-14454
1,2	-14455
▁ᅮᅲ	-14456
▁가위	-14457
▁강시	-14458
▁강철	-14459
▁거리	-14460
▁걸어	-14461
▁고수	-14462
▁과한	-14463
▁광팬	-14464
▁광해	-14465
▁괴작	-14466
▁극을	-14467
▁극의	-14468
▁근육	-14469
▁금지	-14470
▁꾸준	-14471
▁나갈	-14472
▁낚임	-14473
▁남음	-14474
▁낯선	-14475
▁농락	-14476
▁높냐	-14477
▁느꼇	-14478
▁늙어	-14479
▁되었	-14480
▁될까	-14481
▁둘러	-14482
▁드립	-14483
▁들려	-14484
▁떠난	-14485
▁맞은	-14486
▁맞음	-14487
▁먹을	-14488
▁메인	-14489
▁명예	-14490
▁목표	-14491
▁무려	-14492
▁무성	-14493
▁박한	-14494
▁반짝	-14495
▁발톱	-14496
▁밥먹	-14497
▁버티	-14498
▁법칙	-14499
▁베낀	-14500
▁별을	-14501
▁복제	-14502
▁본후	-14503
▁볼걸	-14504
▁볼땐	-14505
▁분석	-14506
▁비비	-14507
▁빌리	-14508
▁생겨	-14509
▁서정	-14510
▁선교	-14511
▁선배	-14512
▁성숙	-14513
▁소문	-14514
▁소외	-14515
▁속상	-14516
▁스탈	-14517
▁스톤	-14518
▁스파	-14519
▁신뢰	-14520
▁신부	-14521
▁썩어	-14522
▁씬이	-14523
▁아웃	-14524
▁아일	-14525
▁악평	-14526
▁안의	-14527
▁안질	-14528
▁압축	-14529
▁약해	-14530
▁어서	-14531
▁언론	-14532
▁옹박	-14533
▁왕따	-14534
▁원망	-14535
▁원초	-14536
▁윌스	-14537
▁유역	-14538
▁이길	-14539
▁이문	-14540
▁인공	-14541
▁있죠	-14542
▁자격	-14543
▁잘난	-14544
▁잘한	-14545
▁장치	-14546
▁전성	-14547
▁절라	-14548
▁정점	-14549
▁제한	-14550
▁조디	-14551
▁조명	-14552
▁조커	-14553
▁주체	-14554
▁지도	-14555
▁지우	-14556
▁질문	-14557
▁초라	-14558
▁총질	-14559
▁칼로	-14560
▁통찰	-14561
▁파멸	-14562
▁팬티	-14563
▁평정	-14564
▁플래	-14565
▁필모	-14566
▁한때	-14567
▁헐크	-14568
▁훼손	-14569
거리며	-14570
게스트	-14571
결말도	-14572
그렇지	-14573
났는데	-14574
놈들아	-14575
던영화	-14576
때까지	-14577
로버츠	-14578
만들지	-14579
맙소사	-14580
명이서	-14581
바이벌	-14582
밖에안	-14583
보았다	-14584
분들도	-14585
소재를	-14586
스파이	-14587
액션도	-14588
없다는	-14589
엇지만	-14590
에비해	-14591
여년전	-14592
영상미	-14593
영화만	-14594
요소가	-14595
우리가	-14596
으라면	-14597
읍니다	-14598
이기도	-14599
이어서	-14600
자들을	-14601
자마자	-14602
작가의	-14603
정도가	-14604
지는게	-14605
지못한	-14606
질않나	-14607
출연진	-14608
카메라	-14609
테스크	-14610
편보단	-14611
하네여	-14612
*^^*	-14613
..10	-14614
1209	-14615
1333	-14616
1436	-14617
1693	-14618
1695	-14619
1990	-14620
6205	-14621
6398	-14622
6485	-14623
6782	-14624
6785	-14625
6787	-14626
6888	-14627
8000	-14628
9081	-14629
9213	-14630
9432	-14631
9445	-14632
9618	-14633
▁259	-14634
▁288	-14635
▁336	-14636
▁456	-14637
▁458	-14638
▁521	-14639
▁726	-14640
▁것으로	-14641
▁공감은	-14642
▁괜찮을	-14643
▁괴물이	-14644
▁구하기	-14645
▁그녀가	-14646
▁그래두	-14647
▁그러면	-14648
▁그러지	-14649
▁그림이	-14650
▁기타노	-14651
▁끔찍한	-14652
▁끝났다	-14653
▁나오길	-14654
▁나오니	-14655
▁나왔을	-14656
▁남아돌	-14657
▁남자들	-14658
▁내보내	-14659
▁노래와	-14660
▁노출이	-14661
▁뇌리에	-14662
▁누구냐	-14663
▁느끼지	-14664
▁당시의	-14665
▁따라서	-14666
▁라디오	-14667
▁로멘틱	-14668
▁로버츠	-14669
▁마음속	-14670
▁말이야	-14671
▁말이죠	-14672
▁망치는	-14673
▁모니터	-14674
▁못되는	-14675
▁무삭제	-14676
▁미국에	-14677
▁미쳤다	-14678
▁바라며	-14679
▁바보로	-14680
▁보니깐	-14681
▁본질을	-14682
▁불쌍함	-14683
▁빈디젤	-14684
▁뿐이고	-14685
▁선입견	-14686
▁설레는	-14687
▁속편은	-14688
▁수작임	-14689
▁스릴감	-14690
▁싶다는	-14691
▁안나와	-14692
▁안드로	-14693
▁앞뒤가	-14694
▁어느것	-14695
▁어드벤	-14696
▁어떨지	-14697
▁어쩌고	-14698
▁얼굴만	-14699
▁없을듯	-14700
▁없잖아	-14701
▁여실히	-14702
▁여주는	-14703
▁역부족	-14704
▁연결이	-14705
▁영상물	-14706
▁예술을	-14707
▁예전의	-14708
▁오드리	-14709
▁욕하고	-14710
▁운명을	-14711
▁웃기긴	-14712
▁이건머	-14713
▁이나영	-14714
▁이라고	-14715
▁이민기	-14716
▁이범수	-14717
▁이성재	-14718
▁이종석	-14719
▁익숙한	-14720
▁인내심	-14721
▁인셉션	-14722
▁인피니	-14723
▁일본판	-14724
▁잘모르	-14725
▁장난해	-14726
▁재미난	-14727
▁제목도	-14728
▁좀비물	-14729
▁좋다는	-14730
▁좋은거	-14731
▁주변에	-14732
▁중구난	-14733
▁중반부	-14734
▁지브리	-14735
▁지상파	-14736
▁처절한	-14737
▁철저히	-14738
▁초반은	-14739
▁초콜릿	-14740
▁최고작	-14741
▁최민식	-14742
▁최진실	-14743
▁출연자	-14744
▁카타르	-14745
▁특히나	-14746
▁평소에	-14747
▁평점만	-14748
▁하늘을	-14749
▁하시는	-14750
▁한국이	-14751
▁허무함	-14752
▁허접함	-14753
▁화난다	-14754
▁후속편	-14755
▁흔하디	-14756
▁흥미가	-14757
나오는거	-14758
나왔으면	-14759
났습니다	-14760
아닌가요	-14761
아무것도	-14762
영화라니	-14763
점이라니	-14764
처음부터	-14765
하더군요	-14766
▁8057	-14767
▁8720	-14768
▁9133	-14769
▁9325	-14770
▁9463	-14771
▁9464	-14772
▁9468	-14773
▁9733	-14774
▁9735	-14775
▁9767	-14776
▁9792	-14777
▁9802	-14778
▁9817	-14779
▁9820	-14780
▁9850	-14781
▁9967	-14782
▁가족끼리	-14783
▁감독님이	-14784
▁감성적인	-14785
▁개연성은	-14786
▁관대하다	-14787
▁괜찮지만	-14788
▁기억하고	-14789
▁나오면서	-14790
▁너무하다	-14791
▁다가온다	-14792
▁담겨있는	-14793
▁대작이다	-14794
▁돋보였던	-14795
▁돌아가고	-14796
▁디테일한	-14797
▁따뜻하다	-14798
▁로맨스를	-14799
▁메시지는	-14800
▁못했지만	-14801
▁반전영화	-14802
▁벌어지는	-14803
▁별하나도	-14804
▁보는듯한	-14805
▁생각해요	-14806
▁선생님이	-14807
▁손꼽히는	-14808
▁시간여행	-14809
▁시리즈로	-14810
▁식상하고	-14811
▁신비로운	-14812
▁싶어지는	-14813
▁쌍팔년도	-14814
▁쓰레기도	-14815
▁아이들도	-14816
▁안타까울	-14817
▁알수있는	-14818
▁액션씬이	-14819
▁어디선가	-14820
▁어릴적에	-14821
▁어벤져스	-14822
▁어이없네	-14823
▁여자들은	-14824
▁영화까지	-14825
▁영화들을	-14826
▁영화보면	-14827
▁오래오래	-14828
▁으리으리	-14829
▁이야기로	-14830
▁인상깊은	-14831
▁재밌게봄	-14832
▁재밌겠다	-14833
▁전하고자	-14834
▁조잡하고	-14835
▁주인공과	-14836
▁줄거리는	-14837
▁천녀유혼	-14838
▁판타지를	-14839
▁필요할까	-14840
▁하루종일	-14841
▁현실성도	-14842
뻔한스토리	-14843
영화보면서	-14844
▁10002	-14845
▁10062	-14846
▁10064	-14847
▁10100	-14848
▁10108	-14849
▁10125	-14850
▁10135	-14851
▁10136	-14852
▁10178	-14853
▁괜찮았어요	-14854
▁그렇다치고	-14855
▁기대하면서	-14856
▁내용이지만	-14857
▁뒤로갈수록	-14858
▁드라마에서	-14859
▁모르겠으나	-14860
▁볼만하던데	-14861
▁사람으로서	-14862
▁스토리라인	-14863
▁억지스러움	-14864
▁인상깊었다	-14865
▁작품이라고	-14866
▁재미없던데	-14867
▁지루합니다	-14868
▁최악이었다	-14869
▁해피엔딩이	-14870
▁감사드립니다	-14871
▁애니메이션을	-14872
▁최고의드라마	-14873
EC	-14874
_=	-14875
ᄀᄀ	-14876
▁ᅡ	-14877
▁귓	-14878
▁랭	-14879
▁밧	-14880
▁뷰	-14881
▁샀	-14882
▁숫	-14883
▁좁	-14884
▁챔	-14885
▁펄	-14886
가끔	-14887
개월	-14888
검색	-14889
겟음	-14890
계에	-14891
고어	-14892
관에	-14893
기리	-14894
끝이	-14895
낮게	-14896
년생	-14897
노무	-14898
노키	-14899
느낀	-14900
다메	-14901
단지	-14902
대신	-14903
더블	-14904
도못	-14905
동일	-14906
된게	-14907
러리	-14908
력과	-14909
로가	-14910
론을	-14911
리던	-14912
린데	-14913
먼이	-14914
면도	-14915
모자	-14916
무협	-14917
민을	-14918
받지	-14919
밤에	-14920
버렷	-14921
보냐	-14922
본듯	-14923
볼타	-14924
부대	-14925
분열	-14926
브로	-14927
비한	-14928
사상	-14929
살짝	-14930
상관	-14931
상식	-14932
세트	-14933
소니	-14934
수한	-14935
슬링	-14936
시윤	-14937
시즘	-14938
신경	-14939
신과	-14940
실한	-14941
어낸	-14942
어주	-14943
에여	-14944
여친	-14945
예상	-14946
와라	-14947
유천	-14948
으다	-14949
은이	-14950
이군	-14951
인기	-14952
장창	-14953
줬음	-14954
짜고	-14955
찍고	-14956
찍은	-14957
최강	-14958
침을	-14959
타닉	-14960
포스	-14961
포장	-14962
피의	-14963
현이	-14964
황당	-14965
///	-14966
uck	-14967
▁PD	-14968
▁강예	-14969
▁개빡	-14970
▁경쟁	-14971
▁고고	-14972
▁고향	-14973
▁골든	-14974
▁공개	-14975
▁과감	-14976
▁구할	-14977
▁그중	-14978
▁김규	-14979
▁김창	-14980
▁나나	-14981
▁남지	-14982
▁놀랄	-14983
▁높고	-14984
▁놓칠	-14985
▁다는	-14986
▁다죽	-14987
▁대다	-14988
▁되냐	-14989
▁드릅	-14990
▁드릴	-14991
▁마땅	-14992
▁많지	-14993
▁맞고	-14994
▁먹어	-14995
▁미워	-14996
▁바꿀	-14997
▁배슬	-14998
▁백미	-14999
▁밴드	-15000
▁봣다	-15001
▁분신	-15002
▁빨아	-15003
▁산다	-15004
▁상당	-15005
▁샤말	-15006
▁서사	-15007
▁서세	-15008
▁선율	-15009
▁소오	-15010
▁손오	-15011
▁스탠	-15012
▁스탭	-15013
▁신성	-15014
▁아따	-15015
▁아시	-15016
▁아휴	-15017
▁안듬	-15018
▁안전	-15019
▁압박	-15020
▁약을	-15021
▁어긋	-15022
▁얻은	-15023
▁오덕	-15024
▁우월	-15025
▁유전	-15026
▁윤아	-15027
▁의아	-15028
▁인과	-15029
▁인듯	-15030
▁인연	-15031
▁인줄	-15032
▁임팩	-15033
▁자매	-15034
▁작업	-15035
▁작작	-15036
▁작정	-15037
▁잡은	-15038
▁저딴	-15039
▁적합	-15040
▁정글	-15041
▁제공	-15042
▁졸립	-15043
▁좋구	-15044
▁좌절	-15045
▁중심	-15046
▁지네	-15047
▁징그	-15048
▁짱나	-15049
▁채우	-15050
▁책이	-15051
▁쳐다	-15052
▁최종	-15053
▁취급	-15054
▁치곤	-15055
▁치닫	-15056
▁친절	-15057
▁키워	-15058
▁터지	-15059
▁통한	-15060
▁파헤	-15061
▁피디	-15062
▁한몫	-15063
▁한쪽	-15064
▁할듯	-15065
▁합쳐	-15066
▁했어	-15067
▁형태	-15068
▁흡사	-15069
개연성	-15070
귀여워	-15071
극장판	-15072
들과의	-15073
들이여	-15074
렸지만	-15075
리는게	-15076
만해도	-15077
무서워	-15078
박하고	-15079
버리네	-15080
본건데	-15081
봤을때	-15082
부분만	-15083
분들께	-15084
사회의	-15085
생각해	-15086
소재는	-15087
수없다	-15088
스트너	-15089
쒸레기	-15090
애들도	-15091
없었음	-15092
연기자	-15093
연출이	-15094
왜이래	-15095
원작을	-15096
인건가	-15097
점수를	-15098
정신이	-15099
주는거	-15100
중인데	-15101
편이나	-15102
평점에	-15103
할머니	-15104
했었던	-15105
화부터	-15106
----	-15107
1315	-15108
1332	-15109
1358	-15110
1375	-15111
1423	-15112
1444	-15113
1613	-15114
1912	-15115
1992	-15116
2000	-15117
2777	-15118
6007	-15119
6061	-15120
6217	-15121
6253	-15122
6306	-15123
6309	-15124
6324	-15125
6395	-15126
6504	-15127
6532	-15128
6752	-15129
6792	-15130
6795	-15131
9260	-15132
9270	-15133
9333	-15134
9399	-15135
9541	-15136
9591	-15137
9710	-15138
9773	-15139
9967	-15140
▁105	-15141
▁156	-15142
▁185	-15143
▁229	-15144
▁266	-15145
▁326	-15146
▁341	-15147
▁370	-15148
▁428	-15149
▁471	-15150
▁481	-15151
▁489	-15152
▁560	-15153
▁679	-15154
▁761	-15155
▁가운데	-15156
▁가치는	-15157
▁각각의	-15158
▁개실망	-15159
▁고딩때	-15160
▁고맙다	-15161
▁구리고	-15162
▁귀요미	-15163
▁그러니	-15164
▁급하게	-15165
▁기회를	-15166
▁꽃보다	-15167
▁나같은	-15168
▁나타난	-15169
▁나혼자	-15170
▁내평점	-15171
▁놀래키	-15172
▁다루는	-15173
▁다문화	-15174
▁당할순	-15175
▁대단함	-15176
▁돌아온	-15177
▁또다시	-15178
▁똑같다	-15179
▁리스트	-15180
▁맞지만	-15181
▁먹칠을	-15182
▁몰랐던	-15183
▁무리수	-15184
▁무작정	-15185
▁뭔내용	-15186
▁미국은	-15187
▁미래의	-15188
▁밑에분	-15189
▁바뀌고	-15190
▁발견한	-15191
▁보고또	-15192
▁보시는	-15193
▁보였다	-15194
▁봤는대	-15195
▁부실한	-15196
▁불멸의	-15197
▁빠르고	-15198
▁사랑할	-15199
▁살아갈	-15200
▁새로울	-15201
▁색감이	-15202
▁생각과	-15203
▁생각남	-15204
▁생뚱맞	-15205
▁생생한	-15206
▁시키는	-15207
▁신기할	-15208
▁실력이	-15209
▁실망을	-15210
▁아팠다	-15211
▁안나올	-15212
▁안들어	-15213
▁약빨고	-15214
▁어울릴	-15215
▁언니가	-15216
▁얼굴을	-15217
▁없는지	-15218
▁없으며	-15219
▁역량이	-15220
▁영혼이	-15221
▁예술가	-15222
▁오늘은	-15223
▁이감독	-15224
▁이것을	-15225
▁이러지	-15226
▁이름만	-15227
▁이쁘네	-15228
▁이자벨	-15229
▁있겠다	-15230
▁있기에	-15231
▁있는것	-15232
▁있었지	-15233
▁자체로	-15234
▁장근석	-15235
▁장애인	-15236
▁재미업	-15237
▁전개를	-15238
▁조금더	-15239
▁조악한	-15240
▁주제곡	-15241
▁죽어도	-15242
▁지독한	-15243
▁진하게	-15244
▁짜여진	-15245
▁짧지만	-15246
▁찍어도	-15247
▁추천함	-15248
▁충무로	-15249
▁친구와	-15250
▁친일파	-15251
▁콘서트	-15252
▁타이밍	-15253
▁팬인데	-15254
▁피터팬	-15255
▁하시길	-15256
▁하야오	-15257
▁하여금	-15258
▁한국식	-15259
▁해줘서	-15260
▁했어야	-15261
▁히치콕	-15262
▁히틀러	-15263
그렇다고	-15264
남는영화	-15265
노잼노잼	-15266
만으로는	-15267
시리즈중	-15268
인것같다	-15269
점줍니다	-15270
주고싶다	-15271
캐릭터가	-15272
하기에는	-15273
▁-_-;	-15274
▁4000	-15275
▁6822	-15276
▁7090	-15277
▁8018	-15278
▁8164	-15279
▁8568	-15280
▁8590	-15281
▁8940	-15282
▁9295	-15283
▁9614	-15284
▁9617	-15285
▁9667	-15286
▁9685	-15287
▁9747	-15288
▁9794	-15289
▁9807	-15290
▁9814	-15291
▁9827	-15292
▁9830	-15293
▁9900	-15294
▁9912	-15295
▁9933	-15296
▁9998	-15297
▁감동까지	-15298
▁결혼하고	-15299
▁관점에서	-15300
▁그러니까	-15301
▁꼭보시길	-15302
▁나오지만	-15303
▁남는영화	-15304
▁네이버는	-15305
▁눈물난다	-15306
▁다시보면	-15307
▁달달하고	-15308
▁드림웍스	-15309
▁들어가는	-15310
▁만드는게	-15311
▁말하려고	-15312
▁매끄럽지	-15313
▁먹먹하고	-15314
▁보는사람	-15315
▁보이는데	-15316
▁본시리즈	-15317
▁본영화중	-15318
▁볼만하고	-15319
▁브라이언	-15320
▁사라지고	-15321
▁생각해볼	-15322
▁섬세하고	-15323
▁성장영화	-15324
▁스릴러도	-15325
▁신선했다	-15326
▁아까운데	-15327
▁아름다워	-15328
▁아버지와	-15329
▁안됩니다	-15330
▁안보는데	-15331
▁알았네요	-15332
▁알았지만	-15333
▁압권이다	-15334
▁엔딩까지	-15335
▁연출이나	-15336
▁열받아서	-15337
▁엽기적인	-15338
▁올레티비	-15339
▁옴니버스	-15340
▁왜이러냐	-15341
▁왜이러지	-15342
▁욕하면서	-15343
▁유치원생	-15344
▁이유없이	-15345
▁있는영화	-15346
▁있었을까	-15347
▁잔잔하다	-15348
▁재밌지만	-15349
▁잼있는데	-15350
▁잼있었음	-15351
▁줄거리도	-15352
▁줄거리에	-15353
▁중국영화	-15354
▁지금보니	-15355
▁지루함과	-15356
▁질질끌고	-15357
▁집중하게	-15358
▁처음보는	-15359
▁풀어가는	-15360
▁하루하루	-15361
▁하지말고	-15362
▁한번보고	-15363
재미도없고	-15364
...!!!	-15365
▁10014	-15366
▁10023	-15367
▁10105	-15368
▁10110	-15369
▁10184	-15370
▁10232	-15371
▁10270	-15372
▁너무재미있	-15373
▁네이버에서	-15374
▁떨어지지만	-15375
▁리메이크작	-15376
▁만들어내는	-15377
▁만들었다면	-15378
▁소름돋는다	-15379
▁스토리텔링	-15380
▁아담샌들러	-15381
▁아쉽습니다	-15382
▁알았습니다	-15383
▁여주인공도	-15384
▁이런쓰레기	-15385
▁잊혀지지가	-15386
▁잔인하기만	-15387
▁조금이라도	-15388
▁좋은영화다	-15389
▁죽여버리고	-15390
▁충격적이다	-15391
▁감동적이예요	-15392
▁기대이상으로	-15393
▁내인생최고의	-15394
▁등장인물들이	-15395
▁무슨생각으로	-15396
▁미션임파서블	-15397
▁해피엔딩으로	-15398
▁수고하셨습니다	-15399
?.	-15400
SF	-15401
av	-15402
ge	-15403
gt	-15404
▁꺄	-15405
▁꽂	-15406
▁낄	-15407
▁띠	-15408
▁래	-15409
▁샹	-15410
▁셰	-15411
▁쩜	-15412
▁쭈	-15413
▁펑	-15414
▁험	-15415
▁헝	-15416
개뿔	-15417
겹고	-15418
고만	-15419
광수	-15420
국을	-15421
군데	-15422
그대	-15423
그럴	-15424
긴데	-15425
꺼임	-15426
껀데	-15427
날에	-15428
닥터	-15429
대요	-15430
대인	-15431
되었	-15432
등이	-15433
딩이	-15434
딱지	-15435
라구	-15436
레터	-15437
르르	-15438
리암	-15439
마라	-15440
뭐임	-15441
배가	-15442
봤어	-15443
부부	-15444
비행	-15445
산다	-15446
색이	-15447
생크	-15448
세번	-15449
소문	-15450
쉬는	-15451
스랑	-15452
슴다	-15453
시걸	-15454
신지	-15455
쏘는	-15456
씬을	-15457
안이	-15458
양반	-15459
어려	-15460
연습	-15461
올려	-15462
우성	-15463
웃고	-15464
위는	-15465
이연	-15466
일로	-15467
자극	-15468
잔아	-15469
죽은	-15470
지노	-15471
지상	-15472
츠의	-15473
퍼스	-15474
포기	-15475
포드	-15476
폭행	-15477
피가	-15478
할순	-15479
해질	-15480
호는	-15481
확인	-15482
힐링	-15483
art	-15484
▁AV	-15485
▁up	-15486
▁ᄂᄂ	-15487
▁ᄌᄅ	-15488
▁감싸	-15489
▁개망	-15490
▁경기	-15491
▁계시	-15492
▁고집	-15493
▁공격	-15494
▁곽지	-15495
▁국뽕	-15496
▁귀한	-15497
▁균형	-15498
▁근거	-15499
▁금치	-15500
▁급급	-15501
▁기반	-15502
▁깨우	-15503
▁나지	-15504
▁남한	-15505
▁너도	-15506
▁놀람	-15507
▁놀이	-15508
▁눈감	-15509
▁당췌	-15510
▁대구	-15511
▁대여	-15512
▁독재	-15513
▁동의	-15514
▁두뇌	-15515
▁두서	-15516
▁따지	-15517
▁딴짓	-15518
▁딸을	-15519
▁마르	-15520
▁며칠	-15521
▁면도	-15522
▁몰고	-15523
▁몰려	-15524
▁무뇌	-15525
▁무방	-15526
▁뭐든	-15527
▁뭘말	-15528
▁박용	-15529
▁박철	-15530
▁반항	-15531
▁배제	-15532
▁백만	-15533
▁벌레	-15534
▁법한	-15535
▁벗고	-15536
▁베르	-15537
▁베일	-15538
▁변명	-15539
▁분은	-15540
▁빠졌	-15541
▁사정	-15542
▁살았	-15543
▁살지	-15544
▁성지	-15545
▁셜록	-15546
▁소비	-15547
▁속아	-15548
▁수영	-15549
▁아리	-15550
▁아자	-15551
▁안티	-15552
▁알맹	-15553
▁야마	-15554
▁야쿠	-15555
▁양반	-15556
▁어필	-15557
▁에스	-15558
▁에혀	-15559
▁오줌	-15560
▁욕할	-15561
▁우마	-15562
▁우베	-15563
▁울었	-15564
▁유니	-15565
▁유작	-15566
▁윤제	-15567
▁의식	-15568
▁이모	-15569
▁이시	-15570
▁일제	-15571
▁잃어	-15572
▁자료	-15573
▁자빠	-15574
▁작살	-15575
▁잘라	-15576
▁잠만	-15577
▁잠재	-15578
▁잡을	-15579
▁장기	-15580
▁장편	-15581
▁재연	-15582
▁재일	-15583
▁적어	-15584
▁전범	-15585
▁조롱	-15586
▁종결	-15587
▁주네	-15588
▁주장	-15589
▁중고	-15590
▁지날	-15591
▁지능	-15592
▁질러	-15593
▁짜고	-15594
▁짧고	-15595
▁추상	-15596
▁쿠바	-15597
▁탈을	-15598
▁트와	-15599
▁특집	-15600
▁포커	-15601
▁호강	-15602
▁홀로	-15603
▁획기	-15604
▁효민	-15605
▁힘듬	-15606
각기동	-15607
개드림	-15608
겟어요	-15609
넘치고	-15610
노래도	-15611
는다면	-15612
달리는	-15613
데리고	-15614
배우를	-15615
보는거	-15616
본다면	-15617
부일체	-15618
분들의	-15619
빠지고	-15620
뻔하고	-15621
설정이	-15622
쇄살인	-15623
아름다	-15624
았다고	-15625
어주는	-15626
열심히	-15627
예쁘고	-15628
으려나	-15629
으려다	-15630
이구나	-15631
이나마	-15632
이런걸	-15633
일지도	-15634
자신을	-15635
자체도	-15636
코드가	-15637
티비티	-15638
할말이	-15639
할수있	-15640
회까지	-15641
...2	-15642
1008	-15643
1044	-15644
1056	-15645
1440	-15646
1461	-15647
1551	-15648
1565	-15649
1666	-15650
1668	-15651
1747	-15652
1748	-15653
1770	-15654
1796	-15655
1826	-15656
1856	-15657
2007	-15658
2009	-15659
6028	-15660
6030	-15661
6056	-15662
6117	-15663
6225	-15664
6302	-15665
6414	-15666
6488	-15667
6492	-15668
6509	-15669
6521	-15670
6531	-15671
6580	-15672
6582	-15673
6599	-15674
6669	-15675
6801	-15676
9000	-15677
9065	-15678
9085	-15679
9200	-15680
9236	-15681
9268	-15682
9354	-15683
9402	-15684
9507	-15685
9516	-15686
9547	-15687
9786	-15688
9789	-15689
9876	-15690
9879	-15691
9896	-15692
bbbb	-15693
zzzz	-15694
▁272	-15695
▁306	-15696
▁429	-15697
▁541	-15698
▁559	-15699
▁6.5	-15700
▁636	-15701
▁Bad	-15702
▁가지게	-15703
▁감동에	-15704
▁갑이다	-15705
▁강하다	-15706
▁개봉작	-15707
▁개성이	-15708
▁개인적	-15709
▁개짜증	-15710
▁공포의	-15711
▁과거에	-15712
▁과하게	-15713
▁그걸로	-15714
▁그녀를	-15715
▁그러고	-15716
▁김남길	-15717
▁까메오	-15718
▁꼬라지	-15719
▁내리는	-15720
▁넘친다	-15721
▁노력은	-15722
▁능력이	-15723
▁다가오	-15724
▁대박나	-15725
▁돋는다	-15726
▁되는지	-15727
▁드릅게	-15728
▁드리고	-15729
▁들어오	-15730
▁들었음	-15731
▁마피아	-15732
▁말대로	-15733
▁매력도	-15734
▁멋졌다	-15735
▁모처럼	-15736
▁못한게	-15737
▁뭐하러	-15738
▁바람피	-15739
▁밖에는	-15740
▁발전이	-15741
▁보다도	-15742
▁볼만은	-15743
▁봉태규	-15744
▁봤어도	-15745
▁봤으나	-15746
▁분들께	-15747
▁빠르게	-15748
▁사소한	-15749
▁사실은	-15750
▁상황과	-15751
▁소설의	-15752
▁소설이	-15753
▁수준도	-15754
▁시선이	-15755
▁시절이	-15756
▁신동엽	-15757
▁심장을	-15758
▁싶었음	-15759
▁쓸쓸한	-15760
▁아시는	-15761
▁아직은	-15762
▁아픔과	-15763
▁악역이	-15764
▁애들용	-15765
▁야동을	-15766
▁어렵게	-15767
▁어색함	-15768
▁어울려	-15769
▁엉망인	-15770
▁엉성함	-15771
▁여고생	-15772
▁여운과	-15773
▁예술이	-15774
▁오래전	-15775
▁욕심이	-15776
▁용기를	-15777
▁우정이	-15778
▁유머와	-15779
▁이러냐	-15780
▁이선균	-15781
▁이순신	-15782
▁이지만	-15783
▁인간에	-15784
▁임수정	-15785
▁있을듯	-15786
▁자체의	-15787
▁장난이	-15788
▁잼있고	-15789
▁전쟁에	-15790
▁제작한	-15791
▁조용한	-15792
▁주는거	-15793
▁주셔서	-15794
▁주지훈	-15795
▁죽었다	-15796
▁처음봄	-15797
▁초점을	-15798
▁초호화	-15799
▁최강의	-15800
▁추억돋	-15801
▁추억에	-15802
▁코믹물	-15803
▁쿠엔틴	-15804
▁투자한	-15805
▁티비에	-15806
▁퍼펙트	-15807
▁포기한	-15808
▁포장한	-15809
▁하여간	-15810
▁한방에	-15811
▁한번에	-15812
▁했다고	-15813
▁헛소리	-15814
▁현재의	-15815
꼭보세요	-15816
다는건지	-15817
보고싶은	-15818
봤는데도	-15819
사랑해요	-15820
스오피스	-15821
신분들은	-15822
아이들이	-15823
액션영화	-15824
에서부터	-15825
이라이트	-15826
이야기를	-15827
잘봤어요	-15828
적으로도	-15829
채널에서	-15830
하기만한	-15831
하셨어요	-15832
한국영화	-15833
해야하나	-15834
했을텐데	-15835
.,.,.	-15836
▁6825	-15837
▁7780	-15838
▁8062	-15839
▁8095	-15840
▁8165	-15841
▁8192	-15842
▁8194	-15843
▁8215	-15844
▁8217	-15845
▁8613	-15846
▁8714	-15847
▁8717	-15848
▁8727	-15849
▁8777	-15850
▁8912	-15851
▁9177	-15852
▁9212	-15853
▁9250	-15854
▁9285	-15855
▁9312	-15856
▁9333	-15857
▁9334	-15858
▁9397	-15859
▁9445	-15860
▁9460	-15861
▁9543	-15862
▁9587	-15863
▁9688	-15864
▁9697	-15865
▁9703	-15866
▁9793	-15867
▁9795	-15868
▁9907	-15869
▁9934	-15870
▁9943	-15871
▁9962	-15872
▁9993	-15873
▁love	-15874
▁가슴으로	-15875
▁궁금하게	-15876
▁귀엽네요	-15877
▁극장개봉	-15878
▁기대보다	-15879
▁기분나쁜	-15880
▁나오는게	-15881
▁남습니다	-15882
▁내취향은	-15883
▁너무재밋	-15884
▁노잼이다	-15885
▁느끼는게	-15886
▁늘어지는	-15887
▁단순하고	-15888
▁도대체가	-15889
▁로맨스도	-15890
▁명작중의	-15891
▁몰입도를	-15892
▁무시하고	-15893
▁민주주의	-15894
▁반복되는	-15895
▁별로지만	-15896
▁볼거리는	-15897
▁볼까말까	-15898
▁봤을때는	-15899
▁불가능한	-15900
▁빠져들어	-15901
▁상업영화	-15902
▁상영시간	-15903
▁상황에서	-15904
▁생각된다	-15905
▁생생하다	-15906
▁샤를리즈	-15907
▁슈퍼액션	-15908
▁스토리만	-15909
▁시간아깝	-15910
▁시청자가	-15911
▁안젤리나	-15912
▁않았어요	-15913
▁암걸리는	-15914
▁어이없게	-15915
▁여고괴담	-15916
▁예상되는	-15917
▁오유에서	-15918
▁우울하고	-15919
▁웃기려고	-15920
▁이딴영화	-15921
▁이때까지	-15922
▁이쁘네요	-15923
▁인상깊다	-15924
▁임팩트가	-15925
▁있어야지	-15926
▁있었으나	-15927
▁재미까지	-15928
▁재밌게봤	-15929
▁제목부터	-15930
▁존재한다	-15931
▁중요한건	-15932
▁쥬라기공	-15933
▁즐거웠다	-15934
▁코미디의	-15935
▁크리스마	-15936
▁평점테러	-15937
▁표정연기	-15938
▁현실에서	-15939
▁흥미롭다	-15940
본영화중에	-15941
재밌었는데	-15942
추천합니다	-15943
▁1,2,3	-15944
▁10010	-15945
▁10022	-15946
▁10112	-15947
▁10134	-15948
▁10233	-15949
▁10276	-15950
▁감동이네요	-15951
▁개연성없는	-15952
▁궁금하네요	-15953
▁모든면에서	-15954
▁뭔내용인지	-15955
▁생각해보면	-15956
▁싶을정도로	-15957
▁아이디어가	-15958
▁안타깝지만	-15959
▁영화였네요	-15960
▁있었을텐데	-15961
▁친구들이랑	-15962
▁킬링타임도	-15963
▁테러리스트	-15964
▁모르겠습니다	-15965
ᅲᅲᅲᅲᅲᅲᅲᅲᅲᅲᅲᅲᅲᅲᅲᅲ	-15966
▁ᄏᄏᄏᄏᄏᄏᄏᄏᄏᄏᄏᄏᄏᄏᄏ	-15967
0^	-15968
bl	-15969
gm	-15970
~?	-15971
~^	-15972
▁z	-15973
▁‘	-15974
▁껍	-15975
▁뤽	-15976
▁르	-15977
▁릴	-15978
▁벙	-15979
▁쉰	-15980
▁앗	-15981
▁훗	-15982
결이	-15983
국가	-15984
기전	-15985
길바	-15986
남고	-15987
났네	-15988
낼수	-15989
님도	-15990
당신	-15991
데가	-15992
돼지	-15993
되야	-15994
된거	-15995
둘다	-15996
드릴	-15997
디스	-15998
란의	-15999
런스	-16000
력은	-16001
류에	-16002
리뷰	-16003
릴수	-16004
마니	-16005
만치	-16006
많아	-16007
먹어	-16008
면에	-16009
뭉클	-16010
뭐라	-16011
미달	-16012
변화	-16013
불편	-16014
블록	-16015
블리	-16016
비밀	-16017
삶을	-16018
상처	-16019
서로	-16020
선징	-16021
성만	-16022
성형	-16023
수종	-16024
시킴	-16025
식상	-16026
심리	-16027
심심	-16028
아놔	-16029
안보	-16030
앓이	-16031
앤더	-16032
어져	-16033
역이	-16034
연씨	-16035
영원	-16036
올리	-16037
욕이	-16038
우월	-16039
울고	-16040
유루	-16041
이럴	-16042
잇음	-16043
있었	-16044
자매	-16045
자살	-16046
잔데	-16047
잤다	-16048
조선	-16049
종교	-16050
죽이	-16051
지경	-16052
지난	-16053
지던	-16054
지라	-16055
진한	-16056
질뻔	-16057
쩔어	-16058
쯤은	-16059
차게	-16060
차기	-16061
참나	-16062
천만	-16063
축구	-16064
출신	-16065
코비	-16066
크래	-16067
클럽	-16068
탐정	-16069
터져	-16070
토가	-16071
통쾌	-16072
파리	-16073
폐지	-16074
프가	-16075
했냐	-16076
..3	-16077
▁5~	-16078
▁av	-16079
▁sm	-16080
▁ᄉᄀ	-16081
▁ᄉᄉ	-16082
▁가요	-16083
▁강남	-16084
▁거친	-16085
▁건달	-16086
▁곁에	-16087
▁계단	-16088
▁고루	-16089
▁고쳐	-16090
▁곳에	-16091
▁관찰	-16092
▁그레	-16093
▁그릇	-16094
▁그후	-16095
▁근본	-16096
▁기어	-16097
▁기원	-16098
▁긴급	-16099
▁끊어	-16100
▁나른	-16101
▁날카	-16102
▁노인	-16103
▁높음	-16104
▁누워	-16105
▁늦은	-16106
▁니미	-16107
▁님들	-16108
▁덕후	-16109
▁도움	-16110
▁돋는	-16111
▁동경	-16112
▁동원	-16113
▁디지	-16114
▁딸의	-16115
▁마련	-16116
▁말길	-16117
▁말까	-16118
▁망상	-16119
▁먹은	-16120
▁메릴	-16121
▁명량	-16122
▁모건	-16123
▁모래	-16124
▁무미	-16125
▁무어	-16126
▁반개	-16127
▁발암	-16128
▁배두	-16129
▁버림	-16130
▁변함	-16131
▁본드	-16132
▁불우	-16133
▁비가	-16134
▁비긴	-16135
▁빨려	-16136
▁사례	-16137
▁사장	-16138
▁산타	-16139
▁삼천	-16140
▁새드	-16141
▁서글	-16142
▁성질	-16143
▁손을	-16144
▁수다	-16145
▁수호	-16146
▁시점	-16147
▁시킨	-16148
▁썰렁	-16149
▁쓰면	-16150
▁쓴다	-16151
▁안달	-16152
▁얘네	-16153
▁얻을	-16154
▁없죠	-16155
▁에디	-16156
▁엠비	-16157
▁여군	-16158
▁와나	-16159
▁왜들	-16160
▁외에	-16161
▁요란	-16162
▁욕설	-16163
▁용의	-16164
▁웃다	-16165
▁워킹	-16166
▁웬지	-16167
▁유준	-16168
▁으으	-16169
▁이랬	-16170
▁이명	-16171
▁이브	-16172
▁입고	-16173
▁잉여	-16174
▁잼남	-16175
▁저건	-16176
▁저격	-16177
▁점도	-16178
▁제주	-16179
▁종북	-16180
▁종종	-16181
▁좌빨	-16182
▁좌좀	-16183
▁죄책	-16184
▁주의	-16185
▁지껄	-16186
▁지내	-16187
▁지닌	-16188
▁지리	-16189
▁질이	-16190
▁쩔고	-16191
▁청소	-16192
▁춤을	-16193
▁충족	-16194
▁튀어	-16195
▁폭파	-16196
▁피로	-16197
▁한듯	-16198
▁해병	-16199
▁해운	-16200
▁회복	-16201
▁후려	-16202
▁희극	-16203
가보다	-16204
가치가	-16205
같지만	-16206
게리온	-16207
겠구나	-16208
결말은	-16209
고있는	-16210
기대를	-16211
나는데	-16212
내인생	-16213
대에서	-16214
더구만	-16215
되는게	-16216
된다고	-16217
드래곤	-16218
때리고	-16219
떄문에	-16220
릅니다	-16221
만들기	-16222
만이쁨	-16223
모로우	-16224
못한다	-16225
무섭다	-16226
미니즘	-16227
보게되	-16228
보니깐	-16229
보여주	-16230
봤을까	-16231
분까지	-16232
새로운	-16233
선징악	-16234
소설을	-16235
스라엘	-16236
스럽네	-16237
시기를	-16238
십니까	-16239
안나오	-16240
안나옴	-16241
어나서	-16242
어이가	-16243
역사상	-16244
였다는	-16245
으므로	-16246
인이다	-16247
일텐데	-16248
자신이	-16249
정말로	-16250
제목이	-16251
좋았던	-16252
케이블	-16253
하려다	-16254
해야만	-16255
핵노잼	-16256
1012	-16257
1024	-16258
1090	-16259
1197	-16260
1234	-16261
1256	-16262
1266	-16263
1307	-16264
1328	-16265
1361	-16266
1445	-16267
1512	-16268
1520	-16269
1529	-16270
1721	-16271
1763	-16272
1784	-16273
1805	-16274
1911	-16275
2099	-16276
2598	-16277
3168	-16278
6048	-16279
6093	-16280
6247	-16281
6275	-16282
6292	-16283
6329	-16284
6347	-16285
6354	-16286
6378	-16287
6387	-16288
6405	-16289
6428	-16290
6695	-16291
6720	-16292
6839	-16293
6868	-16294
8773	-16295
9088	-16296
9325	-16297
9348	-16298
9395	-16299
9470	-16300
9517	-16301
9565	-16302
9585	-16303
9665	-16304
9667	-16305
9736	-16306
9743	-16307
9764	-16308
9871	-16309
OOOO	-16310
oooo	-16311
▁106	-16312
▁126	-16313
▁132	-16314
▁141	-16315
▁228	-16316
▁539	-16317
▁781	-16318
▁^-^	-16319
▁가깝다	-16320
▁가는데	-16321
▁강력한	-16322
▁개명작	-16323
▁것들은	-16324
▁결말의	-16325
▁관람가	-16326
▁구석이	-16327
▁그래요	-16328
▁그런게	-16329
▁그정도	-16330
▁근래에	-16331
▁기분나	-16332
▁기억남	-16333
▁기존의	-16334
▁꼽히는	-16335
▁끌리는	-16336
▁끝나면	-16337
▁나가고	-16338
▁나오나	-16339
▁나와는	-16340
▁나이를	-16341
▁남아도	-16342
▁낫다고	-16343
▁내생의	-16344
▁놀라게	-16345
▁놀라고	-16346
▁담겨져	-16347
▁대기업	-16348
▁대사에	-16349
▁돋보인	-16350
▁되겠다	-16351
▁되다니	-16352
▁되버린	-16353
▁두가지	-16354
▁맙소사	-16355
▁모를까	-16356
▁묘사가	-16357
▁무개념	-16358
▁뭐하자	-16359
▁미개한	-16360
▁미성년	-16361
▁미치지	-16362
▁배우에	-16363
▁베리굿	-16364
▁별로네	-16365
▁별론데	-16366
▁별점은	-16367
▁보라는	-16368
▁보시고	-16369
▁본다는	-16370
▁봤건만	-16371
▁부성애	-16372
▁비교도	-16373
▁비오는	-16374
▁뽀로로	-16375
▁사건이	-16376
▁사나이	-16377
▁살인자	-16378
▁생각날	-16379
▁설명은	-16380
▁설정도	-16381
▁세번째	-16382
▁쇼생크	-16383
▁슬로우	-16384
▁시작한	-16385
▁시절을	-16386
▁아까웠	-16387
▁안되게	-16388
▁앞서간	-16389
▁애틋한	-16390
▁어쨋든	-16391
▁없는거	-16392
▁없는것	-16393
▁여동생	-16394
▁여름에	-16395
▁역겹고	-16396
▁열정과	-16397
▁오페라	-16398
▁올만에	-16399
▁왜그러	-16400
▁외모가	-16401
▁요즘엔	-16402
▁욕나옴	-16403
▁용가리	-16404
▁우리를	-16405
▁우리와	-16406
▁우리집	-16407
▁원작도	-16408
▁은은한	-16409
▁이러면	-16410
▁이수근	-16411
▁이슬람	-16412
▁이용해	-16413
▁이준기	-16414
▁일반인	-16415
▁있다가	-16416
▁있을때	-16417
▁자체다	-16418
▁조연들	-16419
▁좋으면	-16420
▁좋은듯	-16421
▁진리다	-16422
▁진수를	-16423
▁진실은	-16424
▁짜증날	-16425
▁차인표	-16426
▁채널을	-16427
▁첫장면	-16428
▁클로즈	-16429
▁테스트	-16430
▁투성이	-16431
▁평가할	-16432
▁포스가	-16433
▁하나다	-16434
▁하더라	-16435
▁한번만	-16436
▁해보고	-16437
▁행동을	-16438
▁향수를	-16439
▁흥행을	-16440
게만드는	-16441
나는영화	-16442
다고해서	-16443
드라마의	-16444
들때문에	-16445
무엇보다	-16446
보지마셈	-16447
본방사수	-16448
사랑하는	-16449
생각하고	-16450
아버지가	-16451
용으로도	-16452
이었다면	-16453
인줄알고	-16454
재밌었다	-16455
재밌었음	-16456
잼있어요	-16457
하긴한데	-16458
할때마다	-16459
해야한다	-16460
해지네요	-16461
,,,,,	-16462
ᅲᅲᅲᅲᅲ	-16463
▁1998	-16464
▁6317	-16465
▁7084	-16466
▁7338	-16467
▁7465	-16468
▁7545	-16469
▁8017	-16470
▁8047	-16471
▁8117	-16472
▁8210	-16473
▁8383	-16474
▁8612	-16475
▁8633	-16476
▁8637	-16477
▁8662	-16478
▁8772	-16479
▁8827	-16480
▁8864	-16481
▁8917	-16482
▁8937	-16483
▁8938	-16484
▁9123	-16485
▁9144	-16486
▁9223	-16487
▁9238	-16488
▁9262	-16489
▁9290	-16490
▁9298	-16491
▁9304	-16492
▁9313	-16493
▁9398	-16494
▁9417	-16495
▁9595	-16496
▁9660	-16497
▁9684	-16498
▁9690	-16499
▁9707	-16500
▁9764	-16501
▁9800	-16502
▁9835	-16503
▁9864	-16504
▁9867	-16505
▁9874	-16506
▁9894	-16507
▁9930	-16508
▁9937	-16509
▁9947	-16510
▁9964	-16511
▁9968	-16512
▁감독이나	-16513
▁감정표현	-16514
▁개나소나	-16515
▁개성있는	-16516
▁것입니다	-16517
▁괜찮다고	-16518
▁그런대로	-16519
▁그이하도	-16520
▁기다리는	-16521
▁기대하게	-16522
▁기발하고	-16523
▁나올법한	-16524
▁난무하는	-16525
▁남주인공	-16526
▁너무좋다	-16527
▁네이버에	-16528
▁녹아있는	-16529
▁느낄수있	-16530
▁댓글알바	-16531
▁뛰어나다	-16532
▁로드리게	-16533
▁만드는데	-16534
▁말도안돼	-16535
▁맘에든다	-16536
▁몇년전에	-16537
▁미화시킨	-16538
▁발연기가	-16539
▁버금가는	-16540
▁보지말고	-16541
▁봤는데요	-16542
▁봤던건데	-16543
▁분위기만	-16544
▁블루레이	-16545
▁비슷해서	-16546
▁빠져든다	-16547
▁섬세하게	-16548
▁소소하게	-16549
▁순간순간	-16550
▁스릴러는	-16551
▁시간아까	-16552
▁시사회로	-16553
▁식스센스	-16554
▁실망스러	-16555
▁안나오나	-16556
▁안무서움	-16557
▁안무섭다	-16558
▁어색하지	-16559
▁어정쩡한	-16560
▁연기들이	-16561
▁연예인이	-16562
▁영상미에	-16563
▁영화ᄏᄏ	-16564
▁영화로만	-16565
▁영화보단	-16566
▁왔다갔다	-16567
▁웃기기도	-16568
▁유치하기	-16569
▁음악까지	-16570
▁이리저리	-16571
▁이스라엘	-16572
▁있다는걸	-16573
▁있을까요	-16574
▁재미있었	-16575
▁전혀없는	-16576
▁제목처럼	-16577
▁제외하면	-16578
▁조폭영화	-16579
▁좋았네요	-16580
▁주인공인	-16581
▁줄거리를	-16582
▁중구난방	-16583
▁중심으로	-16584
▁지루했던	-16585
▁진지하고	-16586
▁찍었을까	-16587
▁찾아가는	-16588
▁천재적인	-16589
▁최악이네	-16590
▁치밀하고	-16591
▁편안하게	-16592
▁포스터를	-16593
▁형편없다	-16594
▁흥미롭지	-16595
영화제에서	-16596
재밌었어요	-16597
~~~~~~	-16598
▁10070	-16599
▁10167	-16600
▁10185	-16601
▁10214	-16602
▁10238	-16603
▁10254	-16604
▁감동이에요	-16605
▁고등학교때	-16606
▁그로테스크	-16607
▁내용도없고	-16608
▁너무재밌게	-16609
▁너무하네요	-16610
▁누구에게나	-16611
▁느껴지네요	-16612
▁대단하다고	-16613
▁드라마인데	-16614
▁보여줬는데	-16615
▁볼만한영화	-16616
▁사람들에겐	-16617
▁실망입니다	-16618
▁아기자기한	-16619
▁영화보다는	-16620
▁이건아니다	-16621
▁이딴영화가	-16622
▁일본영화가	-16623
▁재미없는데	-16624
▁전달하고자	-16625
▁조금이나마	-16626
▁토이스토리	-16627
▁트와일라잇	-16628
▁프로그램이	-16629
▁다시보고싶은	-16630
▁말이필요없음	-16631
▁좋은영화입니다	-16632
!!!!!!!!!!!	-16633
.~	-16634
df	-16635
ᄉᄋ	-16636
ᅳᅮ	-16637
▁괘	-16638
▁껄	-16639
▁껴	-16640
▁낡	-16641
▁돕	-16642
▁떳	-16643
▁란	-16644
▁룰	-16645
▁얕	-16646
▁왼	-16647
▁즈	-16648
▁쯔	-16649
▁탔	-16650
▁톡	-16651
▁틴	-16652
▁훅	-16653
감성	-16654
값이	-16655
걸음	-16656
겁다	-16657
고리	-16658
구구	-16659
그가	-16660
기네	-16661
기발	-16662
꿈을	-16663
끈다	-16664
나나	-16665
남친	-16666
났고	-16667
노소	-16668
느꼈	-16669
니를	-16670
니콜	-16671
데스	-16672
들게	-16673
들인	-16674
디다	-16675
뜬금	-16676
라드	-16677
락을	-16678
란게	-16679
러지	-16680
레알	-16681
렸을	-16682
마를	-16683
매일	-16684
먹음	-16685
몇번	-16686
모델	-16687
모도	-16688
무한	-16689
물가	-16690
미야	-16691
바꿔	-16692
발로	-16693
백한	-16694
법을	-16695
베스	-16696
브이	-16697
빈이	-16698
사무	-16699
사투	-16700
생명	-16701
서를	-16702
세대	-16703
세월	-16704
세의	-16705
소서	-16706
습니	-16707
시각	-16708
애씨	-16709
애의	-16710
어쩜	-16711
에의	-16712
연결	-16713
왜케	-16714
외엔	-16715
우석	-16716
은지	-16717
응원	-16718
의도	-16719
일드	-16720
자다	-16721
장군	-16722
정돈	-16723
제국	-16724
졸잼	-16725
주혁	-16726
진리	-16727
진부	-16728
질러	-16729
천히	-16730
치며	-16731
치지	-16732
캐리	-16733
캔들	-16734
쿠삭	-16735
키드	-16736
탄생	-16737
통을	-16738
튼의	-16739
파는	-16740
포트	-16741
해낸	-16742
호구	-16743
환의	-16744
황후	-16745
흘러	-16746
OOD	-16747
her	-16748
▁-1	-16749
▁It	-16750
▁No	-16751
▁XX	-16752
▁on	-16753
▁가다	-16754
▁갈릴	-16755
▁강박	-16756
▁개가	-16757
▁건드	-16758
▁걷는	-16759
▁걸려	-16760
▁걸릴	-16761
▁것의	-16762
▁고만	-16763
▁골라	-16764
▁곳이	-16765
▁공산	-16766
▁구림	-16767
▁그룹	-16768
▁글래	-16769
▁금성	-16770
▁긍정	-16771
▁기절	-16772
▁김상	-16773
▁꾸밈	-16774
▁꾸역	-16775
▁낄낄	-16776
▁남이	-16777
▁낫네	-16778
▁낯설	-16779
▁누굴	-16780
▁눈도	-16781
▁눈은	-16782
▁대립	-16783
▁돈에	-16784
▁되요	-16785
▁될것	-16786
▁될지	-16787
▁두렵	-16788
▁디비	-16789
▁따른	-16790
▁똥칠	-16791
▁뜻이	-16792
▁리부	-16793
▁리브	-16794
▁마술	-16795
▁만듦	-16796
▁멸망	-16797
▁명절	-16798
▁무모	-16799
▁무튼	-16800
▁물리	-16801
▁미셸	-16802
▁민간	-16803
▁밍밍	-16804
▁바램	-16805
▁반의	-16806
▁변질	-16807
▁보냐	-16808
▁보수	-16809
▁보편	-16810
▁부재	-16811
▁브금	-16812
▁비포	-16813
▁뻔함	-16814
▁사서	-16815
▁삼각	-16816
▁서영	-16817
▁서유	-16818
▁서태	-16819
▁솔찍	-16820
▁쇼킹	-16821
▁숀펜	-16822
▁수목	-16823
▁수술	-16824
▁수습	-16825
▁슬플	-16826
▁안믿	-16827
▁안성	-16828
▁애는	-16829
▁애쓰	-16830
▁양키	-16831
▁영호	-16832
▁오리	-16833
▁울려	-16834
▁울음	-16835
▁이뿌	-16836
▁이와	-16837
▁인위	-16838
▁일은	-16839
▁작렬	-16840
▁잡다	-16841
▁장선	-16842
▁재벌	-16843
▁잭슨	-16844
▁잼따	-16845
▁잼이	-16846
▁적인	-16847
▁전파	-16848
▁접한	-16849
▁조미	-16850
▁조성	-16851
▁존스	-16852
▁죽임	-16853
▁줄줄	-16854
▁진자	-16855
▁짙은	-16856
▁찌푸	-16857
▁추적	-16858
▁축하	-16859
▁침략	-16860
▁킬빌	-16861
▁타입	-16862
▁태극	-16863
▁토르	-16864
▁편히	-16865
▁프랭	-16866
▁학원	-16867
▁했고	-16868
▁행운	-16869
▁형성	-16870
▁호평	-16871
▁호화	-16872
▁휴가	-16873
▁휴지	-16874
▁흠뻑	-16875
▁히스	-16876
♡♡♡	-16877
감독과	-16878
감으로	-16879
개막장	-16880
거같고	-16881
관람가	-16882
귀엽고	-16883
끝날때	-16884
남네요	-16885
내시간	-16886
내용에	-16887
느낌의	-16888
는건지	-16889
동영상	-16890
되는거	-16891
되는지	-16892
드럽게	-16893
들었다	-16894
들인가	-16895
레이터	-16896
렸을때	-16897
만들면	-16898
만한데	-16899
무서움	-16900
받아야	-16901
보라고	-16902
사랑해	-16903
산으로	-16904
세계를	-16905
시디어	-16906
실에서	-16907
싶네요	-16908
어야할	-16909
역시나	-16910
였는지	-16911
완성도	-16912
요일이	-16913
우면서	-16914
을거다	-16915
인거지	-16916
잇어요	-16917
있다고	-16918
자에게	-16919
전개도	-16920
주의에	-16921
지금은	-16922
지마요	-16923
지모르	-16924
진짜로	-16925
차이가	-16926
치면서	-16927
터지고	-16928
투성이	-16929
폰으로	-16930
필요가	-16931
하는걸	-16932
하셔서	-16933
했구나	-16934
했던거	-16935
!!^^	-16936
...)	-16937
1088	-16938
1160	-16939
1276	-16940
1284	-16941
1294	-16942
1304	-16943
1349	-16944
1355	-16945
1466	-16946
1473	-16947
1505	-16948
1532	-16949
1538	-16950
1557	-16951
1567	-16952
1580	-16953
1610	-16954
1692	-16955
1790	-16956
1835	-16957
1885	-16958
1893	-16959
1960	-16960
1963	-16961
2352	-16962
6004	-16963
6010	-16964
6021	-16965
6090	-16966
6164	-16967
6204	-16968
6206	-16969
6249	-16970
6284	-16971
6323	-16972
6337	-16973
6359	-16974
6369	-16975
6408	-16976
6427	-16977
6441	-16978
6450	-16979
6497	-16980
6517	-16981
6556	-16982
6564	-16983
6587	-16984
6703	-16985
6966	-16986
9009	-16987
9016	-16988
9066	-16989
9093	-16990
9222	-16991
9261	-16992
9322	-16993
9336	-16994
9341	-16995
9423	-16996
9503	-16997
9583	-16998
9726	-16999
9756	-17000
9762	-17001
9802	-17002
9805	-17003
9819	-17004
9822	-17005
9840	-17006
9850	-17007
9874	-17008
▁(10	-17009
▁179	-17010
▁188	-17011
▁199	-17012
▁232	-17013
▁241	-17014
▁356	-17015
▁469	-17016
▁509	-17017
▁649	-17018
▁651	-17019
▁826	-17020
▁829	-17021
▁sbs	-17022
▁ᄊᄅᄀ	-17023
▁가문의	-17024
▁가족은	-17025
▁각본을	-17026
▁감성에	-17027
▁감정에	-17028
▁갔다가	-17029
▁걸작을	-17030
▁겁나게	-17031
▁경찰이	-17032
▁고마워	-17033
▁관객은	-17034
▁그려진	-17035
▁극대화	-17036
▁극치를	-17037
▁금요일	-17038
▁긴박감	-17039
▁김수로	-17040
▁김정은	-17041
▁깨달음	-17042
▁나라는	-17043
▁나온게	-17044
▁나올수	-17045
▁나타내	-17046
▁남동생	-17047
▁남들이	-17048
▁노다메	-17049
▁놀라움	-17050
▁높은거	-17051
▁놓치지	-17052
▁누구를	-17053
▁눈물샘	-17054
▁느껴야	-17055
▁느낌과	-17056
▁다큐의	-17057
▁단어가	-17058
▁담아내	-17059
▁대박임	-17060
▁데이트	-17061
▁두려움	-17062
▁두려워	-17063
▁뒤돌아	-17064
▁마동석	-17065
▁마모루	-17066
▁막무가	-17067
▁만큼의	-17068
▁맛있는	-17069
▁매력과	-17070
▁멀쩡한	-17071
▁모니카	-17072
▁목적이	-17073
▁몸매가	-17074
▁몸부림	-17075
▁못봤다	-17076
▁무난한	-17077
▁무리가	-17078
▁무표정	-17079
▁미묘한	-17080
▁믿을수	-17081
▁바꿔라	-17082
▁바치는	-17083
▁박신혜	-17084
▁박유천	-17085
▁변하는	-17086
▁보는건	-17087
▁보아야	-17088
▁부분에	-17089
▁불편함	-17090
▁비극을	-17091
▁비참한	-17092
▁생각안	-17093
▁설정을	-17094
▁성격이	-17095
▁소방관	-17096
▁슬픔과	-17097
▁시걸의	-17098
▁시작해	-17099
▁시청율	-17100
▁신은경	-17101
▁심하네	-17102
▁싱크로	-17103
▁씨리즈	-17104
▁아는데	-17105
▁안되지	-17106
▁않다는	-17107
▁않은가	-17108
▁애잔한	-17109
▁양심도	-17110
▁어울림	-17111
▁얼굴에	-17112
▁없이도	-17113
▁엉뚱한	-17114
▁엔딩도	-17115
▁여진구	-17116
▁역사는	-17117
▁연기들	-17118
▁오디션	-17119
▁와진짜	-17120
▁우리도	-17121
▁월드컵	-17122
▁웨슬리	-17123
▁유아인	-17124
▁유익한	-17125
▁음모론	-17126
▁의지가	-17127
▁이기는	-17128
▁이렇다	-17129
▁이루는	-17130
▁이유도	-17131
▁일상의	-17132
▁자기만	-17133
▁자리를	-17134
▁자막이	-17135
▁자연의	-17136
▁잔인함	-17137
▁잘봤음	-17138
▁재밋네	-17139
▁재밌냐	-17140
▁전개로	-17141
▁전작을	-17142
▁전체를	-17143
▁절묘한	-17144
▁정재영	-17145
▁정확한	-17146
▁제레미	-17147
▁주는데	-17148
▁즐거워	-17149
▁지겹고	-17150
▁지금이	-17151
▁짠하고	-17152
▁짱인듯	-17153
▁찌질이	-17154
▁찍어서	-17155
▁채민서	-17156
▁철학이	-17157
▁최후의	-17158
▁코믹도	-17159
▁키드먼	-17160
▁토할뻔	-17161
▁파치노	-17162
▁팬이라	-17163
▁풍부한	-17164
▁필요도	-17165
▁하고자	-17166
▁하나경	-17167
▁하나씩	-17168
▁행복은	-17169
▁허니잼	-17170
▁홍진호	-17171
▁화면도	-17172
▁화면에	-17173
답답하고	-17174
대한민국	-17175
생각나서	-17176
생각보다	-17177
시리즈는	-17178
아니지만	-17179
아아아아	-17180
이었는데	-17181
적이었다	-17182
점준거중	-17183
▁1960	-17184
▁7280	-17185
▁7305	-17186
▁7695	-17187
▁7798	-17188
▁8060	-17189
▁8063	-17190
▁8110	-17191
▁8394	-17192
▁8518	-17193
▁8520	-17194
▁8533	-17195
▁8565	-17196
▁8615	-17197
▁8653	-17198
▁8670	-17199
▁8743	-17200
▁8815	-17201
▁8817	-17202
▁8933	-17203
▁8965	-17204
▁9214	-17205
▁9230	-17206
▁9270	-17207
▁9288	-17208
▁9292	-17209
▁9323	-17210
▁9332	-17211
▁9395	-17212
▁9442	-17213
▁9590	-17214
▁9647	-17215
▁9692	-17216
▁9705	-17217
▁9730	-17218
▁9734	-17219
▁9737	-17220
▁9755	-17221
▁9762	-17222
▁9770	-17223
▁9805	-17224
▁9832	-17225
▁9844	-17226
▁9852	-17227
▁9865	-17228
▁9880	-17229
▁9905	-17230
▁9932	-17231
▁9977	-17232
▁9~10	-17233
▁this	-17234
▁견자단이	-17235
▁그럴듯한	-17236
▁그려냈다	-17237
▁그립네요	-17238
▁기대하며	-17239
▁기본적인	-17240
▁기억속에	-17241
▁나오길래	-17242
▁나중에는	-17243
▁내용없는	-17244
▁내인생에	-17245
▁넘어가는	-17246
▁느껴져서	-17247
▁느낌으로	-17248
▁다른사람	-17249
▁담백하게	-17250
▁돈아까운	-17251
▁돈아까움	-17252
▁돈아깝고	-17253
▁동생이랑	-17254
▁들었는데	-17255
▁떨어져서	-17256
▁롱테이크	-17257
▁만들었지	-17258
▁명작이지	-17259
▁목소리는	-17260
▁무서웠음	-17261
▁무협영화	-17262
▁방황하는	-17263
▁배우들과	-17264
▁벗어나지	-17265
▁별로였던	-17266
▁보석같은	-17267
▁봤던영화	-17268
▁부담없이	-17269
▁부족함이	-17270
▁상관없이	-17271
▁생각밖에	-17272
▁생각하니	-17273
▁서스펜스	-17274
▁섹시하고	-17275
▁순수하게	-17276
▁순수함을	-17277
▁숨어있는	-17278
▁스포일러	-17279
▁시원시원	-17280
▁신기하고	-17281
▁아저씨가	-17282
▁애들한테	-17283
▁어거지로	-17284
▁어색해서	-17285
▁어이없어	-17286
▁어찌보면	-17287
▁여자애가	-17288
▁연기들도	-17289
▁영화로써	-17290
▁영화사에	-17291
▁영화평점	-17292
▁유머러스	-17293
▁유치하게	-17294
▁이제그만	-17295
▁있었네요	-17296
▁자막으로	-17297
▁자신에게	-17298
▁재밋던데	-17299
▁정신없이	-17300
▁제목으로	-17301
▁지나가는	-17302
▁촌스럽지	-17303
▁친구에게	-17304
▁타이타닉	-17305
▁파격적인	-17306
▁평점너무	-17307
▁하는구나	-17308
▁해주길래	-17309
▁확실하게	-17310
▁후반부는	-17311
▁후회한다	-17312
▁흡입력이	-17313
감동적이다	-17314
만이쁨여주	-17315
보고싶어요	-17316
스럽습니다	-17317
영화라지만	-17318
최고입니다	-17319
하긴하지만	-17320
!!♥!!♥	-17321
▁10097	-17322
▁10157	-17323
▁10174	-17324
▁10207	-17325
▁10210	-17326
▁10212	-17327
▁10217	-17328
▁10264	-17329
▁나도모르게	-17330
▁드라마중에	-17331
▁매력적이고	-17332
▁사랑과전쟁	-17333
▁사랑입니다	-17334
▁생각한다면	-17335
▁시간아까운	-17336
▁시사회에서	-17337
▁심리묘사가	-17338
▁아니더라도	-17339
▁어쩔수없이	-17340
▁에니메이션	-17341
▁에반게리온	-17342
▁인터스텔라	-17343
▁자극적이고	-17344
▁주인공으로	-17345
▁지루하기도	-17346
▁하이라이트	-17347
▁한국영화를	-17348
▁흥미진진하게	-17349
▁재밌게봤습니다	-17350
▁기대안하고봤는데	-17351
).	-17352
-)	-17353
-_	-17354
2.	-17355
>.	-17356
?(	-17357
ab	-17358
ma	-17359
ry	-17360
th	-17361
~3	-17362
▁ᄎ	-17363
▁“	-17364
▁굵	-17365
▁꽥	-17366
▁닫	-17367
▁댓	-17368
▁랜	-17369
▁몹	-17370
▁빤	-17371
▁샬	-17372
▁솟	-17373
▁썻	-17374
▁엎	-17375
▁줫	-17376
▁촉	-17377
▁퀄	-17378
▁펠	-17379
가까	-17380
가득	-17381
갈수	-17382
겠니	-17383
고의	-17384
공간	-17385
공을	-17386
관념	-17387
관은	-17388
구여	-17389
굳굳	-17390
귀가	-17391
그걸	-17392
그로	-17393
기들	-17394
깊이	-17395
꼬박	-17396
꾸역	-17397
끈한	-17398
나입	-17399
내놔	-17400
내라	-17401
넘어	-17402
놓는	-17403
눈빛	-17404
다녀	-17405
다섯	-17406
다이	-17407
댄스	-17408
드류	-17409
랜든	-17410
런지	-17411
려구	-17412
력의	-17413
련한	-17414
마부	-17415
막극	-17416
만난	-17417
만남	-17418
많네	-17419
먹기	-17420
묘사	-17421
밀라	-17422
밖의	-17423
배를	-17424
번의	-17425
범인	-17426
부짖	-17427
북한	-17428
빵빵	-17429
사장	-17430
생긴	-17431
세용	-17432
셨다	-17433
수현	-17434
신다	-17435
신히	-17436
아웃	-17437
안감	-17438
양은	-17439
어릴	-17440
언젠	-17441
에나	-17442
예전	-17443
옥빈	-17444
요원	-17445
욕을	-17446
용석	-17447
우우	-17448
울이	-17449
으루	-17450
이뻐	-17451
인디	-17452
인터	-17453
잇게	-17454
자본	-17455
잡이	-17456
전과	-17457
전도	-17458
전투	-17459
조각	-17460
조작	-17461
좀더	-17462
종의	-17463
좋앗	-17464
중심	-17465
춰진	-17466
칙칙	-17467
칼립	-17468
크는	-17469
키가	-17470
트랙	-17471
표절	-17472
프만	-17473
피디	-17474
피언	-17475
하심	-17476
합이	-17477
호강	-17478
혹한	-17479
환을	-17480
환이	-17481
흑흑	-17482
--;	-17483
..'	-17484
^.^	-17485
ᄒᄃᄃ	-17486
▁go	-17487
▁ᄆᄎ	-17488
▁간접	-17489
▁견뎌	-17490
▁관능	-17491
▁관리	-17492
▁구석	-17493
▁그곳	-17494
▁근친	-17495
▁기계	-17496
▁기부	-17497
▁김두	-17498
▁김아	-17499
▁깊다	-17500
▁끄고	-17501
▁끌려	-17502
▁넘잼	-17503
▁넣고	-17504
▁네이	-17505
▁농구	-17506
▁느려	-17507
▁대로	-17508
▁더해	-17509
▁동심	-17510
▁되네	-17511
▁되니	-17512
▁두분	-17513
▁딸과	-17514
▁뗄수	-17515
▁리더	-17516
▁말론	-17517
▁멈출	-17518
▁모범	-17519
▁못잡	-17520
▁묘미	-17521
▁무릎	-17522
▁무명	-17523
▁뭘본	-17524
▁박상	-17525
▁박재	-17526
▁박힌	-17527
▁발악	-17528
▁법을	-17529
▁보인	-17530
▁복귀	-17531
▁본적	-17532
▁비둘	-17533
▁사연	-17534
▁살해	-17535
▁생길	-17536
▁서른	-17537
▁서우	-17538
▁세대	-17539
▁소나	-17540
▁소수	-17541
▁수업	-17542
▁수위	-17543
▁수학	-17544
▁스콜	-17545
▁스턴	-17546
▁스테	-17547
▁시망	-17548
▁시퀀	-17549
▁싶고	-17550
▁싸이	-17551
▁써야	-17552
▁쓸모	-17553
▁안줄	-17554
▁안함	-17555
▁않길	-17556
▁알면	-17557
▁알앗	-17558
▁앵글	-17559
▁언더	-17560
▁연구	-17561
▁연령	-17562
▁예정	-17563
▁완존	-17564
▁요한	-17565
▁웅장	-17566
▁위선	-17567
▁유년	-17568
▁유도	-17569
▁유산	-17570
▁유선	-17571
▁유튜	-17572
▁육체	-17573
▁은행	-17574
▁이가	-17575
▁이입	-17576
▁이집	-17577
▁일대	-17578
▁입을	-17579
▁잘짜	-17580
▁잡지	-17581
▁장백	-17582
▁장인	-17583
▁장화	-17584
▁재활	-17585
▁저능	-17586
▁전의	-17587
▁절절	-17588
▁조건	-17589
▁조악	-17590
▁죄악	-17591
▁주려	-17592
▁주식	-17593
▁주저	-17594
▁준수	-17595
▁중딩	-17596
▁지역	-17597
▁지쳐	-17598
▁지친	-17599
▁진작	-17600
▁집안	-17601
▁짓을	-17602
▁쫓아	-17603
▁창문	-17604
▁찾게	-17605
▁책은	-17606
▁책읽	-17607
▁청순	-17608
▁최신	-17609
▁최우	-17610
▁추석	-17611
▁치면	-17612
▁침몰	-17613
▁케미	-17614
▁크라	-17615
▁퇴마	-17616
▁퇴폐	-17617
▁파일	-17618
▁패스	-17619
▁필립	-17620
▁한회	-17621
▁해군	-17622
▁해설	-17623
▁했지	-17624
▁허우	-17625
▁허준	-17626
▁형식	-17627
▁홍경	-17628
▁활동	-17629
가에서	-17630
감정이	-17631
같았다	-17632
거기다	-17633
것들은	-17634
괜찮은	-17635
구성이	-17636
꼭봐야	-17637
나와라	-17638
는지는	-17639
다보니	-17640
도저히	-17641
된영화	-17642
들처럼	-17643
라마바	-17644
리는거	-17645
많아서	-17646
많은데	-17647
무조건	-17648
보는줄	-17649
보다더	-17650
보비치	-17651
본적이	-17652
부르는	-17653
부분을	-17654
분으로	-17655
빠지게	-17656
사랑의	-17657
사랑이	-17658
살짜리	-17659
선생님	-17660
셨는데	-17661
소리만	-17662
시간은	-17663
시간의	-17664
시절의	-17665
시하는	-17666
아닐까	-17667
아이를	-17668
안본다	-17669
어보이	-17670
억지로	-17671
엔딩이	-17672
여자는	-17673
영화와	-17674
오그라	-17675
으니깐	-17676
이러스	-17677
인건지	-17678
인생을	-17679
입니당	-17680
자체는	-17681
작가는	-17682
잘어울	-17683
주의자	-17684
준영화	-17685
지면서	-17686
충분히	-17687
포칼립	-17688
하게만	-17689
하겠네	-17690
한거임	-17691
했기에	-17692
!"""	-17693
...;	-17694
0777	-17695
1006	-17696
1025	-17697
1029	-17698
1032	-17699
1034	-17700
1039	-17701
1049	-17702
1055	-17703
1076	-17704
1078	-17705
1083	-17706
1091	-17707
1195	-17708
1226	-17709
1232	-17710
1259	-17711
1311	-17712
1335	-17713
1343	-17714
1357	-17715
1368	-17716
1379	-17717
1386	-17718
1390	-17719
1394	-17720
1402	-17721
1403	-17722
1404	-17723
1418	-17724
1420	-17725
1434	-17726
1454	-17727
1465	-17728
1492	-17729
1515	-17730
1555	-17731
1592	-17732
1597	-17733
1660	-17734
1663	-17735
1665	-17736
1717	-17737
1731	-17738
1765	-17739
1785	-17740
1794	-17741
1804	-17742
1829	-17743
1859	-17744
1860	-17745
1868	-17746
1884	-17747
1915	-17748
1991	-17749
1993	-17750
2369	-17751
2446	-17752
2489	-17753
6042	-17754
6044	-17755
6064	-17756
6067	-17757
6071	-17758
6073	-17759
6086	-17760
6118	-17761
6208	-17762
6223	-17763
6248	-17764
6278	-17765
6289	-17766
6317	-17767
6355	-17768
6356	-17769
6357	-17770
6371	-17771
6376	-17772
6388	-17773
6392	-17774
6401	-17775
6412	-17776
6413	-17777
6416	-17778
6440	-17779
6457	-17780
6474	-17781
6508	-17782
6522	-17783
6549	-17784
6550	-17785
6716	-17786
6760	-17787
6770	-17788
6775	-17789
6779	-17790
6805	-17791
6811	-17792
6848	-17793
6869	-17794
6884	-17795
6967	-17796
8541	-17797
8552	-17798
9006	-17799
9035	-17800
9037	-17801
9193	-17802
9216	-17803
9292	-17804
9310	-17805
9324	-17806
9343	-17807
9361	-17808
9368	-17809
9411	-17810
9479	-17811
9493	-17812
9496	-17813
9568	-17814
9578	-17815
9592	-17816
9701	-17817
9704	-17818
9713	-17819
9723	-17820
9737	-17821
9745	-17822
9765	-17823
9841	-17824
9842	-17825
9894	-17826
reat	-17827
▁121	-17828
▁139	-17829
▁166	-17830
▁171	-17831
▁1~2	-17832
▁222	-17833
▁242	-17834
▁329	-17835
▁331	-17836
▁431	-17837
▁436	-17838
▁451	-17839
▁476	-17840
▁499	-17841
▁531	-17842
▁566	-17843
▁7~8	-17844
▁899	-17845
▁^^*	-17846
▁bgm	-17847
▁bor	-17848
▁but	-17849
▁가난한	-17850
▁가볍지	-17851
▁가족들	-17852
▁개그는	-17853
▁개망작	-17854
▁개봉할	-17855
▁개졸작	-17856
▁개쩐다	-17857
▁건질게	-17858
▁게이는	-17859
▁결과가	-17860
▁결말만	-17861
▁경쾌한	-17862
▁고질라	-17863
▁공감대	-17864
▁그치만	-17865
▁기대됨	-17866
▁기대할	-17867
▁김래원	-17868
▁김민준	-17869
▁김창완	-17870
▁나무랄	-17871
▁나서도	-17872
▁나오냐	-17873
▁나온건	-17874
▁낚였어	-17875
▁남녀의	-17876
▁낮은듯	-17877
▁너무낮	-17878
▁넣어서	-17879
▁놀랍고	-17880
▁다있냐	-17881
▁담백한	-17882
▁대학교	-17883
▁더빙판	-17884
▁데스노	-17885
▁도가니	-17886
▁뒤통수	-17887
▁드라큐	-17888
▁드러난	-17889
▁들어요	-17890
▁듯하다	-17891
▁떠나는	-17892
▁뜬금포	-17893
▁류승룡	-17894
▁마음도	-17895
▁만들까	-17896
▁만화로	-17897
▁많이나	-17898
▁말처럼	-17899
▁맞는듯	-17900
▁모아서	-17901
▁못본게	-17902
▁못하면	-17903
▁못해도	-17904
▁무한한	-17905
▁문제다	-17906
▁물체가	-17907
▁바뀌는	-17908
▁바람에	-17909
▁배역이	-17910
▁범인은	-17911
▁보내고	-17912
▁보내는	-17913
▁본다고	-17914
▁본사람	-17915
▁본인은	-17916
▁봐야될	-17917
▁부끄러	-17918
▁브로디	-17919
▁빠르기	-17920
▁뻔하디	-17921
▁사랑함	-17922
▁사이에	-17923
▁사춘기	-17924
▁사회가	-17925
▁성장기	-17926
▁세계가	-17927
▁순간의	-17928
▁순수함	-17929
▁스트레	-17930
▁스펙터	-17931
▁슬펐던	-17932
▁신경을	-17933
▁싶을때	-17934
▁쒸레기	-17935
▁악당이	-17936
▁안가네	-17937
▁안되냐	-17938
▁안보길	-17939
▁안봤다	-17940
▁어렵고	-17941
▁어쩐지	-17942
▁얼굴은	-17943
▁엄마를	-17944
▁없군요	-17945
▁여자도	-17946
▁역사가	-17947
▁역사와	-17948
▁연기며	-17949
▁열연이	-17950
▁열정을	-17951
▁였어요	-17952
▁예술적	-17953
▁요즘에	-17954
▁울나라	-17955
▁울트라	-17956
▁원작인	-17957
▁윤계상	-17958
▁이렇지	-17959
▁이상형	-17960
▁이용한	-17961
▁일본에	-17962
▁있도록	-17963
▁있으신	-17964
▁자전거	-17965
▁자존심	-17966
▁잼있어	-17967
▁저지른	-17968
▁전쟁은	-17969
▁제외한	-17970
▁존나게	-17971
▁좀비가	-17972
▁지나면	-17973
▁지르고	-17974
▁지못미	-17975
▁질질끄	-17976
▁짜증을	-17977
▁짱짱짱	-17978
▁찍었다	-17979
▁총으로	-17980
▁추천할	-17981
▁충격과	-17982
▁치밀어	-17983
▁케로로	-17984
▁케서방	-17985
▁크로우	-17986
▁탕웨이	-17987
▁평가는	-17988
▁평점높	-17989
▁표현된	-17990
▁풍경이	-17991
▁하는짓	-17992
▁한국을	-17993
▁한지민	-17994
▁합리화	-17995
▁했네요	-17996
▁했어도	-17997
▁형제의	-17998
▁호기심	-17999
▁흐른다	-18000
▁희생을	-18001
▁힐링이	-18002
▁힘들고	-18003
▁힘들듯	-18004
♡♥♡♥	-18005
거같아서	-18006
다시한번	-18007
대단하다	-18008
들에게도	-18009
때문인지	-18010
분보다가	-18011
영화라는	-18012
영화인지	-18013
이정도면	-18014
인들에게	-18015
재미있어	-18016
좋겠어요	-18017
좋았는데	-18018
지도않은	-18019
지루해서	-18020
지못하고	-18021
처음으로	-18022
최악이다	-18023
하는건데	-18024
하지않는	-18025
한거같다	-18026
해보이는	-18027
흥미진진	-18028
..!!!	-18029
...10	-18030
..;;;	-18031
▁2011	-18032
▁6760	-18033
▁6763	-18034
▁6993	-18035
▁6995	-18036
▁7224	-18037
▁7533	-18038
▁7547	-18039
▁7907	-18040
▁8055	-18041
▁8188	-18042
▁8207	-18043
▁8364	-18044
▁8384	-18045
▁8515	-18046
▁8607	-18047
▁8617	-18048
▁8622	-18049
▁8657	-18050
▁8663	-18051
▁8705	-18052
▁8718	-18053
▁8725	-18054
▁8813	-18055
▁8814	-18056
▁8843	-18057
▁8867	-18058
▁8877	-18059
▁8897	-18060
▁8898	-18061
▁9113	-18062
▁9137	-18063
▁9197	-18064
▁9218	-18065
▁9220	-18066
▁9328	-18067
▁9337	-18068
▁9412	-18069
▁9457	-18070
▁9568	-18071
▁9597	-18072
▁9642	-18073
▁9694	-18074
▁9744	-18075
▁9763	-18076
▁9768	-18077
▁9890	-18078
▁9892	-18079
▁9974	-18080
▁9975	-18081
▁9980	-18082
▁9988	-18083
▁GOOD	-18084
▁가능성을	-18085
▁감독이다	-18086
▁감안해도	-18087
▁괜찮아요	-18088
▁교훈적인	-18089
▁극장판이	-18090
▁나오는건	-18091
▁나오니까	-18092
▁나이먹고	-18093
▁남자친구	-18094
▁너무했다	-18095
▁단편영화	-18096
▁대부분의	-18097
▁두번이나	-18098
▁들었어요	-18099
▁마지막을	-18100
▁막무가내	-18101
▁만든거지	-18102
▁만큼이나	-18103
▁말해준다	-18104
▁매력있고	-18105
▁매력적임	-18106
▁메시지도	-18107
▁명작으로	-18108
▁모자이크	-18109
▁목소리도	-18110
▁별로던데	-18111
▁보여지는	-18112
▁볼수없는	-18113
▁불쌍하고	-18114
▁비교된다	-18115
▁사람인데	-18116
▁산만하다	-18117
▁상관없는	-18118
▁수준낮은	-18119
▁순수함이	-18120
▁스토리라	-18121
▁시작된다	-18122
▁실화라서	-18123
▁씁쓸하다	-18124
▁아까웠음	-18125
▁아버지는	-18126
▁아쉬운건	-18127
▁아쉬울뿐	-18128
▁안가네요	-18129
▁안나오네	-18130
▁안무섭고	-18131
▁안주는데	-18132
▁않았다면	-18133
▁압도적인	-18134
▁어렷을때	-18135
▁어이상실	-18136
▁어쩌라는	-18137
▁억지웃음	-18138
▁엄마한테	-18139
▁없는건가	-18140
▁영화같음	-18141
▁영화군요	-18142
▁영화라도	-18143
▁예술이다	-18144
▁오래도록	-18145
▁올라갈때	-18146
▁외국영화	-18147
▁우주전쟁	-18148
▁위대하다	-18149
▁이거밖에	-18150
▁이거보면	-18151
▁이야기라	-18152
▁이정도의	-18153
▁인피니트	-18154
▁작품성을	-18155
▁잔인하다	-18156
▁잘하시고	-18157
▁재밌구만	-18158
▁재밌으면	-18159
▁저버리지	-18160
▁정체성을	-18161
▁제작진이	-18162
▁조연들의	-18163
▁종교적인	-18164
▁최고예요	-18165
▁최소한의	-18166
▁추구하는	-18167
▁친구들이	-18168
▁친구한테	-18169
▁클라이막	-18170
▁판타스틱	-18171
▁팬이지만	-18172
▁평점으로	-18173
▁표현하는	-18174
▁한국인이	-18175
▁할말없다	-18176
▁할머니가	-18177
▁할수있는	-18178
▁해주네요	-18179
것만으로도	-18180
이었습니다	-18181
재미없어요	-18182
▁10055	-18183
▁10090	-18184
▁10095	-18185
▁10152	-18186
▁10153	-18187
▁10173	-18188
▁10194	-18189
▁10227	-18190
▁10228	-18191
▁10237	-18192
▁10262	-18193
▁10271	-18194
▁기대되네요	-18195
▁기대했건만	-18196
▁기본적으로	-18197
▁느낄수있는	-18198
▁느낌이었다	-18199
▁되돌아보게	-18200
▁들었습니다	-18201
▁만들어놓고	-18202
▁반지의제왕	-18203
▁사람으로써	-18204
▁사랑이라는	-18205
▁사이코패스	-18206
▁수작이라고	-18207
▁쓰레기라는	-18208
▁아름다워요	-18209
▁안남기는데	-18210
▁안드로메다	-18211
▁움직이거나	-18212
▁일본영화의	-18213
▁잘만든영화	-18214
▁장난아니다	-18215
▁저예산으로	-18216
▁정말재밌게	-18217
▁찾아봤는데	-18218
▁처음이었다	-18219
▁한국영화에	-18220
▁아름다운영화	-18221
▁인상적이었다	-18222
▁재미없었어요	-18223
▁하나만으로도	-18224
/3	-18225
_+	-18226
gh	-18227
os	-18228
ᄅᄅ	-18229
▁Z	-18230
▁★	-18231
▁꾀	-18232
▁뉘	-18233
▁딜	-18234
▁랄	-18235
▁뺀	-18236
▁뻘	-18237
▁썅	-18238
▁씌	-18239
▁씻	-18240
▁앳	-18241
▁쫙	-18242
▁켜	-18243
▁큼	-18244
▁킴	-18245
▁텔	-18246
▁톤	-18247
▁힛	-18248
겁나	-18249
겄다	-18250
경험	-18251
고가	-18252
과거	-18253
관의	-18254
광이	-18255
국에	-18256
기며	-18257
기본	-18258
김기	-18259
끼는	-18260
나은	-18261
날듯	-18262
넬로	-18263
노는	-18264
노의	-18265
느낄	-18266
다행	-18267
단을	-18268
답지	-18269
당함	-18270
더가	-18271
드니	-18272
드레	-18273
든데	-18274
란걸	-18275
란드	-18276
람이	-18277
러드	-18278
렴풋	-18279
루지	-18280
를린	-18281
린건	-18282
릿한	-18283
매가	-18284
멋짐	-18285
모험	-18286
목을	-18287
못할	-18288
미로	-18289
미소	-18290
바퀴	-18291
발음	-18292
범이	-18293
벗고	-18294
보려	-18295
볼걸	-18296
봤고	-18297
봤나	-18298
부들	-18299
분량	-18300
분쯤	-18301
분투	-18302
비도	-18303
상상	-18304
서사	-18305
선정	-18306
성인	-18307
세에	-18308
소라	-18309
스톱	-18310
슨과	-18311
승리	-18312
시코	-18313
실제	-18314
았지	-18315
앨런	-18316
어게	-18317
어찌	-18318
어휴	-18319
없던	-18320
었군	-18321
에노	-18322
에야	-18323
연예	-18324
영혼	-18325
와요	-18326
왕짱	-18327
운다	-18328
울수	-18329
을줄	-18330
이구	-18331
이더	-18332
이병	-18333
이소	-18334
익은	-18335
인형	-18336
잘안	-18337
장판	-18338
잭맨	-18339
저의	-18340
전부	-18341
제라	-18342
제이	-18343
졌어	-18344
조용	-18345
조치	-18346
준비	-18347
줬던	-18348
차드	-18349
채영	-18350
출한	-18351
칠때	-18352
카의	-18353
커스	-18354
크게	-18355
타인	-18356
토벤	-18357
티티	-18358
파티	-18359
프의	-18360
하도	-18361
하에	-18362
행위	-18363
향을	-18364
호와	-18365
환경	-18366
희망	-18367
-0-	-18368
?;;	-18369
ect	-18370
ell	-18371
ime	-18372
~~♥	-18373
▁2,	-18374
▁4,	-18375
▁가깝	-18376
▁가질	-18377
▁개운	-18378
▁개쩔	-18379
▁거미	-18380
▁건담	-18381
▁겪는	-18382
▁견디	-18383
▁고난	-18384
▁공식	-18385
▁광기	-18386
▁광주	-18387
▁교도	-18388
▁글쓰	-18389
▁김유	-18390
▁김준	-18391
▁깔려	-18392
▁깨어	-18393
▁꼬박	-18394
▁나두	-18395
▁나약	-18396
▁남길	-18397
▁남상	-18398
▁너의	-18399
▁놀랬	-18400
▁다짐	-18401
▁답을	-18402
▁도로	-18403
▁됐지	-18404
▁되려	-18405
▁등에	-18406
▁등의	-18407
▁떠들	-18408
▁마시	-18409
▁마저	-18410
▁매니	-18411
▁목을	-18412
▁몸짓	-18413
▁못찾	-18414
▁무도	-18415
▁묵직	-18416
▁뭔말	-18417
▁바둑	-18418
▁바랄	-18419
▁박하	-18420
▁백번	-18421
▁버스	-18422
▁베니	-18423
▁부패	-18424
▁불교	-18425
▁붕괴	-18426
▁브리	-18427
▁사골	-18428
▁살자	-18429
▁상승	-18430
▁생김	-18431
▁서동	-18432
▁서지	-18433
▁섞여	-18434
▁성시	-18435
▁소련	-18436
▁소속	-18437
▁송중	-18438
▁수천	-18439
▁순위	-18440
▁숨겨	-18441
▁스텔	-18442
▁실천	-18443
▁심해	-18444
▁싼티	-18445
▁쌍벽	-18446
▁쓰잘	-18447
▁아르	-18448
▁아부	-18449
▁안해	-18450
▁억압	-18451
▁여느	-18452
▁였음	-18453
▁오른	-18454
▁온통	-18455
▁옮겨	-18456
▁왤캐	-18457
▁울궈	-18458
▁위기	-18459
▁위협	-18460
▁유희	-18461
▁으휴	-18462
▁이글	-18463
▁이면	-18464
▁이안	-18465
▁일기	-18466
▁일도	-18467
▁일진	-18468
▁입에	-18469
▁자녀	-18470
▁자의	-18471
▁잘되	-18472
▁잠자	-18473
▁장담	-18474
▁장수	-18475
▁장점	-18476
▁장황	-18477
▁잼써	-18478
▁저랑	-18479
▁저만	-18480
▁정경	-18481
▁조각	-18482
▁조한	-18483
▁종말	-18484
▁죽었	-18485
▁중견	-18486
▁진다	-18487
▁질주	-18488
▁짐작	-18489
▁차기	-18490
▁찬란	-18491
▁참내	-18492
▁처리	-18493
▁클럽	-18494
▁타는	-18495
▁타잔	-18496
▁탈락	-18497
▁평작	-18498
▁평타	-18499
▁표출	-18500
▁핑계	-18501
▁하실	-18502
▁한게	-18503
▁할일	-18504
▁해소	-18505
▁향기	-18506
▁허각	-18507
▁형이	-18508
감동적	-18509
같다는	-18510
거같네	-18511
거린다	-18512
게없다	-18513
굉장히	-18514
구장창	-18515
귀여운	-18516
귀엽다	-18517
그래요	-18518
기때문	-18519
끝나서	-18520
나이에	-18521
남긴다	-18522
는다고	-18523
다니엘	-18524
데없는	-18525
도좋고	-18526
됐지만	-18527
되었던	-18528
따뜻한	-18529
레스트	-18530
릴려고	-18531
말도안	-18532
머리가	-18533
보기는	-18534
봤는지	-18535
세계가	-18536
소리를	-18537
쇼스키	-18538
시네마	-18539
시대가	-18540
싶은데	-18541
싸이코	-18542
씁니다	-18543
아먹는	-18544
아이는	-18545
안보고	-18546
았는지	-18547
얘기가	-18548
어가고	-18549
어릴때	-18550
어지고	-18551
엄마가	-18552
연기짱	-18553
영환줄	-18554
워싱턴	-18555
을려고	-18556
이래서	-18557
이상한	-18558
이예요	-18559
일만에	-18560
있는게	-18561
있는지	-18562
장면에	-18563
전문가	-18564
주었다	-18565
주의의	-18566
지가않	-18567
지에서	-18568
질질끌	-18569
추억이	-18570
통으로	-18571
프스키	-18572
[...]
